<unk>	0
<s>	0
</s>	0
<sep>	0
#	-2.56851
▁#	-2.71126
_	-3.02064
LINE	-3.02903
NEW	-3.02933
▁)	-3.09362
▁(	-3.17912
▁.	-3.28394
▁,	-3.5074
INDENT	-3.76756
▁=	-3.82001
▁'	-4.03142
'	-4.05663
▁:	-4.07456
▁self	-4.11976
▁	-4.28096
n	-4.68452
s	-4.7335
UN	-4.74045
▁]	-4.82928
▁[	-4.8303
\	-5.2208
▁if	-5.28471
(	-5.31309
▁def	-5.36694
.	-5.54226
▁return	-5.70194
▁in	-5.72706
▁_	-5.82035
▁1	-5.98768
▁None	-6.02401
▁the	-6.05359
▁0	-6.07379
▁for	-6.09502
id	-6.11627
▁get	-6.14682
▁is	-6.18147
name	-6.19296
▁a	-6.27028
:	-6.2704
▁{	-6.36793
▁not	-6.37749
,	-6.43865
▁to	-6.44741
.\	-6.46304
▁%	-6.46474
▁==	-6.48516
▁}	-6.51053
▁else	-6.51844
▁name	-6.52588
▁test	-6.53382
-	-6.54599
▁assert	-6.55197
2	-6.6047
▁+	-6.60579
1	-6.66027
/	-6.69515
d	-6.7228
▁-	-6.72583
▁data	-6.75114
▁x	-6.76583
▁assertEqual	-6.78017
▁*	-6.7968
▁and	-6.85888
▁True	-6.88039
▁of	-6.88533
type	-6.8947
▁value	-6.91212
▁__	-6.9165
t	-6.96742
▁i	-6.97535
a	-6.99772
▁2	-7.0021
▁False	-7.01896
r	-7.03342
▁path	-7.05834
ed	-7.07071
▁set	-7.10291
ing	-7.1098
▁**	-7.1145
▁key	-7.12395
▁args	-7.13174
▁result	-7.14202
▁request	-7.17251
▁"	-7.1778
▁f	-7.18851
▁s	-7.20178
▁raise	-7.21866
▁len	-7.22157
path	-7.23287
data	-7.23409
▁@	-7.24339
value	-7.28947
▁p	-7.29382
▁or	-7.29637
▁with	-7.29804
▁user	-7.30294
▁c	-7.31919
▁as	-7.32142
▁b	-7.32262
▁append	-7.33457
file	-7.3485
▁response	-7.34889
)	-7.34941
▁n	-7.36408
list	-7.37209
▁'\	-7.377
x	-7.38064
S	-7.38983
c	-7.39006
▁add	-7.40802
▁r	-7.44185
init	-7.45374
e	-7.46873
▁v	-7.49099
▁node	-7.49434
▁be	-7.51207
▁os	-7.52558
▁list	-7.53
f	-7.53106
to	-7.55895
er	-7.55975
test	-7.5641
▁create	-7.56723
▁from	-7.57225
▁format	-7.57292
b	-7.57367
key	-7.5747
▁d	-7.57776
▁file	-7.58646
▁np	-7.5869
▁m	-7.58711
i	-7.58913
get	-7.59048
Error	-7.59639
▁t	-7.60648
3	-7.60661
▁new	-7.60906
▁3	-7.613
p	-7.61348
▁except	-7.61359
▁y	-7.61951
▁e	-7.6254
▁try	-7.63042
m	-7.6326
▁mock	-7.63358
__(	-7.63591
v	-7.67011
▁id	-7.69259
▁str	-7.72478
▁url	-7.73291
dir	-7.73491
▁kwargs	-7.73491
▁context	-7.75849
▁join	-7.76093
y	-7.76873
dict	-7.7821
url	-7.78964
A	-7.79963
▁type	-7.80055
▁client	-7.8048
isinstance	-7.81402
▁config	-7.83181
param	-7.84624
or	-7.85032
▁text	-7.85092
▁start	-7.86126
▁instance	-7.89158
▁expected	-7.89559
0	-7.9005
▁object	-7.90602
w	-7.91143
4	-7.92676
=	-7.92823
▁obj	-7.9336
info	-7.93849
▁on	-7.94239
class	-7.94396
▁res	-7.95376
▁k	-7.95463
kwargs	-7.95706
▁message	-7.95887
g	-7.96319
in	-7.97036
C	-7.98209
▁l	-7.98841
"	-7.99766
▁app	-7.99797
▁'/	-7.99831
▁status	-8.00099
▁all	-8.00448
▁default	-8.0067
▁int	-8.00837
▁write	-8.01038
▁index	-8.0149
user	-8.02446
▁+=	-8.02973
▁model	-8.03579
code	-8.0394
▁time	-8.04041
▁dict	-8.04576
▁update	-8.05999
▁'%	-8.06013
l	-8.07187
:\	-8.07378
▁has	-8.07583
▁line	-8.0886
▁out	-8.09565
T	-8.09848
▁<	-8.09994
▁this	-8.10071
▁cls	-8.11331
▁log	-8.11419
▁error	-8.11697
▁msg	-8.11951
set	-8.11964
▁field	-8.12204
▁item	-8.12457
▁objects	-8.12831
▁/	-8.12839
db	-8.1342
size	-8.14182
▁w	-8.14204
▁A	-8.14306
with	-8.14597
str	-8.1483
▁method	-8.14895
h	-8.15399
▁g	-8.16283
args	-8.16615
k	-8.17028
▁db	-8.17111
▁output	-8.17946
▁values	-8.17953
▁that	-8.18327
P	-8.19117
1'	-8.19524
▁The	-8.19663
D	-8.19794
time	-8.22402
node	-8.22539
▁params	-8.2277
▁base	-8.23038
▁4	-8.2402
▁run	-8.24076
▁query	-8.24118
▁info	-8.24212
▁print	-8.24557
▁re	-8.25202
G	-8.2576
▁max	-8.25823
L	-8.2646
E	-8.26809
>	-8.26942
▁event	-8.26981
▁5	-8.2703
by	-8.27628
▁group	-8.29325
u	-8.29405
)\	-8.31047
config	-8.31132
▁super	-8.31423
B	-8.31531
on	-8.31659
▁!=	-8.31838
▁body	-8.32215
▁h	-8.32516
▁options	-8.3276
string	-8.33117
▁>	-8.33205
Name	-8.33549
from	-8.33832
▁M	-8.34634
▁S	-8.34643
▁read	-8.35324
▁filename	-8.36172
▁check	-8.36342
%	-8.37183
M	-8.37995
▁current	-8.38977
obj	-8.39447
▁string	-8.40084
▁target	-8.40311
`	-8.40413
▁state	-8.40581
▁10	-8.40592
▁import	-8.41035
▁action	-8.41188
▁will	-8.41538
▁patch	-8.41615
▁an	-8.42502
for	-8.43032
▁other	-8.43301
▁session	-8.43475
▁num	-8.43721
error	-8.43749
Type	-8.43824
▁by	-8.43952
▁content	-8.44138
▁filter	-8.4429
o	-8.4445
▁T	-8.44498
F	-8.45013
▁end	-8.45059
count	-8.45131
▁assertTrue	-8.45266
▁parent	-8.45743
▁form	-8.45768
▁code	-8.45818
state	-8.4604
▁class	-8.46531
▁image	-8.46785
▁port	-8.46961
▁split	-8.46965
▁are	-8.47099
▁input	-8.47119
is	-8.47125
▁val	-8.47262
5	-8.47386
al	-8.47435
▁range	-8.47749
▁version	-8.47896
field	-8.4842
▁table	-8.485
▁G	-8.4865
I	-8.49392
▁size	-8.49498
z	-8.49704
text	-8.49952
no	-8.50182
foo	-8.50191
▁template	-8.50628
▁u	-8.50651
object	-8.50824
▁ret	-8.51107
json	-8.5169
response	-8.51721
▁project	-8.52294
2'	-8.52423
token	-8.52468
all	-8.52505
date	-8.52662
N	-8.52942
api	-8.53149
request	-8.53201
version	-8.53399
re	-8.53426
▁row	-8.53577
index	-8.54096
method	-8.54123
▁host	-8.54142
es	-8.54451
▁root	-8.54819
client	-8.55222
▁json	-8.55299
▁call	-8.5569
▁'--	-8.55789
▁``	-8.55817
▁headers	-8.55854
▁open	-8.56232
▁post	-8.56873
▁settings	-8.57004
▁task	-8.57085
▁items	-8.57214
▁ValueError	-8.57253
▁match	-8.57295
▁If	-8.57409
create	-8.57483
▁find	-8.57525
▁server	-8.58083
able	-8.58186
▁X	-8.58394
result	-8.58465
▁array	-8.59014
▁use	-8.59077
▁P	-8.59092
▁token	-8.59516
▁`	-8.59711
▁service	-8.59715
▁shape	-8.60389
R	-8.60536
group	-8.61138
▁cmd	-8.61368
line	-8.61744
▁command	-8.62283
▁func	-8.62607
map	-8.62889
equal	-8.62922
▁q	-8.63558
▁job	-8.63864
}	-8.64132
▁o	-8.66214
▁logger	-8.66436
▁debug	-8.66449
port	-8.66624
default	-8.66687
instance	-8.67027
ip	-8.67281
attr	-8.67326
py	-8.67696
▁C	-8.67716
▁resp	-8.67745
▁api	-8.68697
▁sub	-8.69438
status	-8.69546
▁it	-8.70174
▁keys	-8.70254
▁Returns	-8.7145
▁resource	-8.71467
List	-8.71488
message	-8.71625
table	-8.71679
int	-8.72201
▁j	-8.72205
▁pass	-8.7302
▁tag	-8.73042
▁parse	-8.73337
update	-8.73584
max	-8.73598
com	-8.74796
▁min	-8.75078
ion	-8.75336
X	-8.75866
``	-8.75883
▁lambda	-8.75911
▁should	-8.76116
▁sys	-8.76215
W	-8.76535
Id	-8.7656
app	-8.7672
and	-8.77551
check	-8.77581
▁build	-8.77597
▁auth	-8.77633
context	-8.77679
model	-8.77868
▁source	-8.7788
ref	-8.78035
▁fields	-8.78645
range	-8.78734
mock	-8.78737
6	-8.78836
spec	-8.79189
q	-8.7952
H	-8.80004
▁network	-8.80231
{	-8.80437
▁count	-8.80936
ly	-8.81357
File	-8.81908
://	-8.8217
▁arg	-8.82396
▁float	-8.82577
at	-8.8263
form	-8.83061
▁mode	-8.83078
▁yield	-8.83399
▁datetime	-8.83711
▁function	-8.83809
bar	-8.84223
format	-8.84256
out	-8.84296
▁header	-8.84385
run	-8.84634
▁child	-8.84839
start	-8.84949
▁L	-8.85018
▁load	-8.85189
▁results	-8.85377
add	-8.85904
▁random	-8.85947
en	-8.86
▁save	-8.86021
▁send	-8.86049
▁next	-8.86599
)'	-8.87071
▁username	-8.87129
image	-8.87977
▁must	-8.87987
▁make	-8.88173
params	-8.88976
log	-8.89069
lib	-8.89231
▁1.0	-8.89337
▁env	-8.89555
▁tuple	-8.89586
▁connection	-8.89783
▁Exception	-8.89797
host	-8.89984
▁while	-8.90294
j	-8.90333
el	-8.90461
>>>	-8.9053
\\	-8.90771
▁fake	-8.91033
▁0.0	-8.91471
▁remove	-8.91793
array	-8.92084
▁parser	-8.92245
func	-8.92472
▁assertRaises	-8.9262
▁given	-8.92659
▁view	-8.92764
template	-8.92769
Test	-8.92835
▁used	-8.9298
▁N	-8.93139
▁last	-8.93266
▁attr	-8.93498
root	-8.93708
as	-8.93912
end	-8.93996
8	-8.94178
names	-8.9451
▁E	-8.94864
▁continue	-8.9507
▁number	-8.9529
▁extra	-8.95335
▁first	-8.95525
▁Q	-8.95566
▁exists	-8.9577
64	-8.96088
▁which	-8.96322
▁numpy	-8.96566
http	-8.96598
▁conn	-8.96653
val	-8.97146
▁req	-8.97343
▁ip	-8.97802
▁6	-8.97861
▁order	-8.98121
▁exception	-8.98528
[	-8.98809
ID	-8.98976
▁utils	-8.98985
▁module	-8.9907
▁copy	-8.99184
▁no	-8.99772
▁local	-8.99936
cache	-8.99985
ids	-9.00179
▁doc	-9.00629
▁pop	-9.00943
of	-9.00974
/'	-9.01058
server	-9.01097
▁delete	-9.01231
new	-9.015
fields	-9.01557
▁F	-9.01842
▁exc	-9.02067
V	-9.02244
ic	-9.02592
*	-9.0306
▁label	-9.03139
filter	-9.03186
▁D	-9.03357
▁search	-9.03494
32	-9.0366
+	-9.03719
▁idx	-9.03754
▁can	-9.03924
▁replace	-9.04324
▁This	-9.04573
output	-9.04627
project	-9.04708
▁process	-9.04978
▁dtype	-9.05098
item	-9.05192
▁address	-9.05192
▁prefix	-9.05208
view	-9.05337
▁un	-9.05447
Set	-9.05693
▁z	-9.05731
▁password	-9.06395
▁domain	-9.06465
values	-9.06498
meta	-9.06892
called	-9.07037
▁channel	-9.07204
Data	-9.07225
▁src	-9.07493
▁old	-9.07504
post	-9.07783
num	-9.07887
▁date	-9.07894
tag	-9.08531
min	-9.09948
▁page	-9.1007
▁timeout	-9.10693
▁length	-9.10866
uuid	-9.11311
number	-9.11315
False	-9.1132
▁ctx	-9.11822
options	-9.11924
▁cluster	-9.12465
▁cache	-9.12685
▁render	-9.12777
service	-9.13415
label	-9.13416
un	-9.13583
query	-9.13658
it	-9.13727
()	-9.14023
call	-9.14083
delete	-9.14197
▁200	-9.14248
▁help	-9.14289
manager	-9.14334
▁B	-9.14492
▁one	-9.14603
▁axis	-9.14638
▁raw	-9.14796
▁title	-9.15229
▁pos	-9.15538
Y	-9.156
▁frame	-9.15674
None	-9.15886
getattr	-9.15896
▁sorted	-9.15957
Value	-9.15982
▁column	-9.16076
▁9	-9.16441
not	-9.16658
▁W	-9.1699
▁element	-9.17025
event	-9.1706
▁exp	-9.17124
:`	-9.17218
7	-9.17253
uri	-9.17323
="	-9.1735
▁link	-9.17583
▁op	-9.17671
▁only	-9.17786
}'	-9.18135
▁py	-9.18166
▁'-	-9.18392
startswith	-9.1886
▁err	-9.18936
admin	-9.19008
▁found	-9.19157
next	-9.19515
module	-9.19694
arg	-9.20188
▁handler	-9.2021
▁Get	-9.2091
U	-9.21014
▁http	-9.21517
▁Mock	-9.21546
":	-9.21641
▁attribute	-9.21659
▁do	-9.21873
store	-9.22002
base	-9.22033
queue	-9.22258
",	-9.22807
task	-9.2304
if	-9.23241
ter	-9.23248
page	-9.23441
▁var	-9.23938
once	-9.24195
ation	-9.24219
▁callback	-9.24281
source	-9.24641
link	-9.24729
▁'<	-9.25061
▁have	-9.25298
Node	-9.25593
▁device	-9.25826
types	-9.26155
up	-9.26508
sub	-9.26543
▁H	-9.26761
keys	-9.26936
▁0.5	-9.27088
▁does	-9.27168
K	-9.27286
▁pk	-9.27291
true	-9.27316
▁stream	-9.27331
▁strip	-9.27534
▁del	-9.28197
Object	-9.28508
▁reverse	-9.2882
=%	-9.28996
read	-9.29003
]	-9.29116
▁close	-9.29165
▁database	-9.29168
▁container	-9.29536
io	-9.29813
action	-9.29976
command	-9.29981
return	-9.30026
▁col	-9.30544
▁dest	-9.30747
▁break	-9.30836
address	-9.30867
length	-9.30886
▁when	-9.31081
▁8	-9.31283
▁email	-9.31419
▁width	-9.31692
Equal	-9.31932
▁attributes	-9.32095
▁TypeError	-9.32267
▁actual	-9.32303
Field	-9.32432
▁tmp	-9.32625
schema	-9.32701
prefix	-9.32706
one	-9.32873
▁widget	-9.3297
utils	-9.33066
▁entry	-9.33119
▁nodes	-9.33258
stream	-9.33448
ity	-9.3354
▁meta	-9.33821
var	-9.3391
▁full	-9.33999
▁specified	-9.34216
▁logging	-9.34368
os	-9.34452
▁select	-9.34453
write	-9.34454
policy	-9.3455
▁hash	-9.34673
▁limit	-9.34811
▁100	-9.34882
▁sum	-9.34894
▁connect	-9.34912
Form	-9.35134
▁User	-9.35244
content	-9.3555
▁case	-9.35762
▁location	-9.35983
auth	-9.36208
me	-9.36421
Mock	-9.36442
▁messages	-9.36523
▁directory	-9.36536
▁'.	-9.37054
▁option	-9.37122
In	-9.37206
et	-9.37208
O	-9.37331
len	-9.37386
▁queue	-9.37503
▁color	-9.37785
▁lower	-9.38059
▁register	-9.3808
▁repo	-9.38248
▁at	-9.38306
level	-9.38328
cmd	-9.38397
▁execute	-9.38399
ch	-9.38683
):	-9.38832
▁tree	-9.3886
▁profile	-9.39039
le	-9.39044
9	-9.39198
header	-9.39456
▁lines	-9.3958
▁>=	-9.39844
models	-9.39994
▁any	-9.40194
print	-9.40286
title	-9.40326
xml	-9.40343
No	-9.40344
▁Test	-9.40458
▁eq	-9.40684
row	-9.41403
input	-9.41414
▁R	-9.41787
de	-9.42009
▁auto	-9.42124
make	-9.42231
ar	-9.42243
build	-9.42274
example	-9.4231
width	-9.42329
▁handle	-9.4252
Key	-9.42702
per	-9.42888
▁offset	-9.4302
▁schema	-9.43202
▁stdout	-9.43828
To	-9.44054
domain	-9.44373
parent	-9.44373
fake	-9.4439
▁files	-9.44392
msg	-9.444
▁diff	-9.44406
▁description	-9.4478
▁conf	-9.44807
▁arguments	-9.44837
▁graph	-9.44866
▁level	-9.45148
▁uri	-9.45506
▁inst	-9.46139
▁remote	-9.46211
application	-9.46435
offset	-9.46471
▁record	-9.46485
local	-9.4665
▁created	-9.46668
▁7	-9.4669
the	-9.4671
▁I	-9.47335
files	-9.47417
▁parameters	-9.47666
ER	-9.47872
String	-9.48279
▁cursor	-9.48334
▁stop	-9.48456
▁entity	-9.48511
option	-9.4856
html	-9.48572
Exception	-9.4858
session	-9.48583
▁{0}	-9.48717
▁right	-9.48721
▁models	-9.48847
▁metadata	-9.49065
▁step	-9.49872
▁using	-9.50116
▁socket	-9.50267
st	-9.50321
▁validate	-9.50464
▁abs	-9.50495
shape	-9.50706
profile	-9.5075
0'	-9.50853
mode	-9.50859
▁columns	-9.50869
addr	-9.50918
▁required	-9.51021
▁optional	-9.51309
an	-9.51421
▁expect	-9.52115
▁decode	-9.52306
op	-9.52341
▁K	-9.52592
▁alpha	-9.52627
ive	-9.52731
▁iter	-9.52784
IN	-9.52807
ment	-9.52925
@	-9.52948
Model	-9.5296
password	-9.52977
hash	-9.52983
timeout	-9.53028
filename	-9.53083
im	-9.53551
▁loads	-9.53874
space	-9.53925
utf	-9.53933
Dict	-9.54198
▁sample	-9.54239
NAME	-9.54309
▁backend	-9.54315
comment	-9.54329
network	-9.54367
ro	-9.54479
▁plugin	-9.5465
▁put	-9.54671
▁errors	-9.54815
▁names	-9.54821
▁encoding	-9.54892
▁exit	-9.55058
open	-9.55116
▁total	-9.55173
▁left	-9.55174
Path	-9.55212
access	-9.5526
match	-9.55264
box	-9.55267
parameters	-9.55398
settings	-9.55508
▁access	-9.55707
col	-9.55788
load	-9.56184
doc	-9.56361
lines	-9.56407
▁rule	-9.56458
frame	-9.56604
parser	-9.56623
ers	-9.56814
▁block	-9.56839
am	-9.57109
▁sp	-9.57389
▁style	-9.57715
▁ext	-9.58464
▁namespace	-9.5865
Response	-9.58909
▁attrs	-9.59026
▁parsed	-9.59121
▁LOG	-9.59148
res	-9.59267
▁argument	-9.59321
▁stderr	-9.59354
▁show	-9.59889
graph	-9.5994
body	-9.59959
▁opts	-9.60498
▁df	-9.60504
▁foo	-9.60656
▁stats	-9.60686
▁top	-9.60906
items	-9.60942
▁admin	-9.61003
▁window	-9.61262
point	-9.61494
target	-9.61504
▁where	-9.61533
agic	-9.61592
Element	-9.62059
▁HTTP	-9.62113
::	-9.62182
sp	-9.62202
Request	-9.62273
est	-9.62285
stats	-9.6267
errors	-9.62813
▁policy	-9.63128
▁mo	-9.63372
headers	-9.63517
iter	-9.63745
KEY	-9.63764
▁already	-9.63764
▁package	-9.63801
▁Qt	-9.63953
RE	-9.63985
device	-9.64032
Text	-9.64069
▁volume	-9.64102
Size	-9.64156
▁force	-9.64204
▁comment	-9.64329
▁zip	-9.64403
▁setup	-9.64452
process	-9.64737
▁pool	-9.64746
View	-9.64822
GET	-9.64867
function	-9.64879
▁we	-9.6489
tree	-9.64922
metadata	-9.65019
/%	-9.65294
▁html	-9.65369
▁up	-9.65389
▁prop	-9.6548
▁expr	-9.65697
▁topic	-9.66022
▁Set	-9.66223
▁each	-9.66273
▁was	-9.66331
▁dirname	-9.66501
▁extend	-9.66519
plugin	-9.66541
argument	-9.66542
callback	-9.66614
▁img	-9.66622
▁subject	-9.66634
▁protocol	-9.66641
pos	-9.66747
▁null	-9.66754
▁dataset	-9.66798
change	-9.66801
▁payload	-9.66916
10	-9.66975
▁driver	-9.67022
▁ex	-9.67045
▁main	-9.67088
▁now	-9.67266
description	-9.67453
conf	-9.67505
last	-9.67523
).	-9.68194
ri	-9.68425
▁util	-9.68753
Handler	-9.68866
▁Parameters	-9.68991
▁assertIn	-9.69029
▁called	-9.69035
}\	-9.6905
location	-9.69144
job	-9.69172
role	-9.69525
parse	-9.69757
▁script	-9.69896
TYPE	-9.70019
Instance	-9.7003
block	-9.70047
like	-9.70057
email	-9.70131
▁net	-9.70496
▁temp	-9.70991
▁dt	-9.71426
<	-9.71671
▁init	-9.71723
volume	-9.71878
▁children	-9.71887
red	-9.71921
▁st	-9.72019
▁wait	-9.72061
limit	-9.72206
ui	-9.72244
),	-9.72266
idx	-9.72391
search	-9.72762
django	-9.7277
ol	-9.72878
!'	-9.7302
my	-9.73153
▁route	-9.73293
def	-9.73413
▁Y	-9.73461
us	-9.73472
▁parameter	-9.73562
ize	-9.73603
▁fetch	-9.73655
nodes	-9.74028
----------	-9.74182
▁%(	-9.7429
▁part	-9.74414
▁but	-9.74422
▁apply	-9.74459
▁buf	-9.74612
▁Args	-9.74754
▁de	-9.74756
▁insert	-9.74786
ul	-9.74808
ag	-9.74828
▁sql	-9.74845
ent	-9.7501
▁system	-9.75162
mask	-9.75483
Item	-9.75541
position	-9.75565
The	-9.75569
cluster	-9.75572
save	-9.75578
▁map	-9.75599
results	-9.75609
te	-9.75775
</	-9.75894
>\	-9.76077
um	-9.76248
3'	-9.76317
▁component	-9.76403
net	-9.7672
▁mod	-9.76862
lt	-9.76864
username	-9.7697
▁space	-9.77109
▁tags	-9.77134
▁V	-9.77189
▁into	-9.77277
il	-9.77351
▁rv	-9.77413
order	-9.77495
Q	-9.77722
▁spec	-9.77762
▁flow	-9.7789
▁cfg	-9.7822
▁account	-9.783
groups	-9.78308
Content	-9.78351
Query	-9.78386
Message	-9.78393
unicode	-9.78416
required	-9.78437
account	-9.78444
entry	-9.78524
▁parts	-9.78824
Un	-9.78933
."	-9.78956
▁manager	-9.79535
▁uuid	-9.79627
ur	-9.79709
▁you	-9.79773
▁containing	-9.7982
▁initial	-9.79971
ut	-9.80006
▁dumps	-9.8007
▁router	-9.80071
▁change	-9.80247
▁after	-9.80303
eq	-9.80313
User	-9.80452
resource	-9.80501
▁display	-9.80505
▁API	-9.80546
can	-9.80563
▁fail	-9.80617
ext	-9.80624
ED	-9.80655
▁sort	-9.80786
▁20	-9.80837
▁dev	-9.80946
fn	-9.81071
bin	-9.81088
▁kw	-9.81308
Context	-9.81319
language	-9.81348
POST	-9.81348
active	-9.81351
container	-9.81365
tuple	-9.8137
current	-9.81372
:%	-9.81404
tools	-9.81454
▁vm	-9.8149
▁my	-9.81674
▁valid	-9.81962
...	-9.82028
▁cur	-9.82142
▁product	-9.8246
00	-9.82475
Connection	-9.82624
▁rel	-9.82654
▁Gaffer	-9.82739
▁may	-9.82779
▁pre	-9.83125
▁skip	-9.83181
▁category	-9.83342
send	-9.8344
element	-9.83483
▁empty	-9.83593
',	-9.83603
▁operation	-9.83721
▁clean	-9.83737
!	-9.83859
▁unicode	-9.84184
Group	-9.84335
Client	-9.84358
Check	-9.84369
Event	-9.84371
cfg	-9.84409
valid	-9.84519
kw	-9.84552
▁12	-9.84553
▁store	-9.8516
▁param	-9.85331
ex	-9.85507
Info	-9.8577
1.	-9.85821
▁verbose	-9.86059
sum	-9.86085
▁environ	-9.86126
▁static	-9.86137
▁rand	-9.86212
▁same	-9.86224
▁passed	-9.86229
▁work	-9.86234
▁ignore	-9.86266
▁original	-9.86267
▁batch	-9.86347
▁configuration	-9.86348
▁role	-9.86398
▁<=	-9.86484
▁bucket	-9.86607
color	-9.86629
router	-9.86679
▁property	-9.86693
▁--	-9.86989
ce	-9.87033
▁pi	-9.87143
▁active	-9.87217
word	-9.87402
All	-9.87464
buffer	-9.87503
site	-9.87509
dev	-9.87552
Get	-9.87561
env	-9.87703
bytes	-9.87751
opts	-9.87903
▁exist	-9.88214
01	-9.88217
▁unit	-9.88461
▁groups	-9.88472
▁fn	-9.88502
11	-9.88602
Class	-9.88894
▁assertIs	-9.88932
▁chunk	-9.89022
Map	-9.89025
▁provided	-9.89067
▁allow	-9.89183
▁custom	-9.89339
▁Attribute	-9.89453
▁ends	-9.89489
▁bool	-9.89492
▁compute	-9.8954
▁ref	-9.89623
▁include	-9.89707
▁endpoint	-9.89748
▁layer	-9.89872
handler	-9.89906
▁height	-9.89938
▁timestamp	-9.8999
▁matrix	-9.90027
▁commit	-9.90028
:'	-9.90218
▁login	-9.90329
let	-9.90404
State	-9.90573
remove	-9.90629
self	-9.9074
auto	-9.90745
right	-9.90757
Table	-9.90777
python	-9.90784
salt	-9.90918
▁xml	-9.9118
▁over	-9.91283
▁alias	-9.91582
▁upload	-9.91587
▁cell	-9.91638
▁ax	-9.91729
▁warning	-9.91849
▁global	-9.9195
]'	-9.91957
Manager	-9.92119
▁Runtime	-9.92128
▁six	-9.92186
▁sleep	-9.92326
▁...	-9.92388
▁indent	-9.92443
old	-9.92566
▁before	-9.92701
▁position	-9.92782
▁URL	-9.92922
case	-9.92972
▁seq	-9.93424
txt	-9.93534
system	-9.93603
rate	-9.93851
▁bytes	-9.94014
Create	-9.94019
Index	-9.94045
script	-9.94074
backend	-9.94089
other	-9.94096
▁'{	-9.94207
▁ts	-9.94442
rows	-9.94471
oo	-9.94479
paths	-9.95192
▁fname	-9.95387
req	-9.95391
Factory	-9.95419
▁50	-9.95464
raw	-9.95498
▁dictionary	-9.95574
ES	-9.95592
▁sender	-9.95778
▁document	-9.95928
▁Create	-9.95937
▁queryset	-9.95985
-8'	-9.96039
cr	-9.96093
▁engine	-9.9614
▁dir	-9.96168
▁available	-9.96235
▁Add	-9.96332
▁agent	-9.96379
▁scope	-9.96383
▁point	-9.96428
connection	-9.96611
column	-9.96629
▁reg	-9.96917
▁salt	-9.96925
▁seconds	-9.97033
messages	-9.97145
mail	-9.97167
pool	-9.97407
disk	-9.97513
git	-9.97524
widget	-9.9754
src	-9.97542
con	-9.97577
show	-9.97698
ot	-9.97723
▁qs	-9.97899
se	-9.97967
▁fd	-9.97982
ms	-9.9805
age	-9.981
▁events	-9.98124
▁enumerate	-9.98771
Failed	-9.98895
Window	-9.989
▁KeyError	-9.9894
▁convert	-9.98984
▁hex	-9.99199
▁collection	-9.99206
▁visit	-9.99276
▁stage	-9.99327
▁encode	-9.99351
returns	-9.99353
▁layout	-9.99416
rs	-9.99517
exc	-9.99523
▁Name	-9.99603
▁builder	-9.99645
▁delta	-9.99817
▁J	-9.99835
30	-10.0003
step	-10.0014
▁sig	-10.0016
interface	-10.0017
thread	-10.0018
package	-10.0019
exception	-10.002
ab	-10.0041
▁contents	-10.0058
ies	-10.01
secret	-10.0107
='	-10.011
login	-10.012
▁non	-10.0148
▁gen	-10.0152
Result	-10.0154
dirs	-10.0174
▁Node	-10.0181
▁'\\	-10.0192
▁report	-10.0222
▁finally	-10.0248
Time	-10.0256
▁argv	-10.0263
▁DEFAULT	-10.0265
▁been	-10.0266
▁scheduler	-10.027
▁repository	-10.0275
50	-10.0277
▁credentials	-10.0287
▁zeros	-10.0288
▁TEST	-10.029
▁listener	-10.0303
▁Base	-10.0311
cls	-10.0314
▁section	-10.0316
AL	-10.0325
iteritems	-10.033
▁pack	-10.0345
be	-10.0356
▁properties	-10.0362
channel	-10.0394
style	-10.0398
part	-10.0402
▁buffer	-10.0409
ate	-10.0413
▁bar	-10.0418
▁rows	-10.043
▁got	-10.0431
▁mask	-10.0431
▁pattern	-10.0442
16	-10.0472
float	-10.0472
temp	-10.0478
tenant	-10.0479
left	-10.048
first	-10.0481
edit	-10.0487
sort	-10.0491
repo	-10.0495
now	-10.0496
raises	-10.0511
▁returned	-10.0533
classes	-10.054
ec	-10.0546
8'	-10.055
attributes	-10.0564
dataset	-10.0566
scale	-10.058
▁signal	-10.0601
Line	-10.0602
off	-10.0613
ING	-10.0617
▁pytest	-10.0631
seq	-10.0633
ure	-10.0638
Re	-10.0655
tar	-10.0655
▁delay	-10.0665
▁types	-10.067
▁click	-10.0673
▁identifier	-10.0674
▁long	-10.0695
events	-10.0696
▁generate	-10.0699
▁platform	-10.0705
▁dot	-10.0706
▁strings	-10.0717
▁grid	-10.0724
has	-10.0745
▁factory	-10.0754
▁'[	-10.0755
weight	-10.0761
day	-10.0773
sample	-10.0775
▁git	-10.0776
▁site	-10.0784
ry	-10.0786
▁Request	-10.0833
over	-10.0849
True	-10.0851
▁im	-10.0857
Action	-10.0858
Task	-10.0862
collection	-10.0864
matrix	-10.0864
commit	-10.0865
total	-10.0866
factory	-10.0866
invalid	-10.0867
full	-10.0867
▁then	-10.0868
▁ns	-10.0882
▁1000	-10.0895
▁md	-10.0898
▁flag	-10.0948
loc	-10.0956
▁metric	-10.0958
▁-------	-10.0978
▁extension	-10.0979
points	-10.0986
Policy	-10.1002
Warning	-10.1002
▁upper	-10.1008
▁DataFrame	-10.1016
▁users	-10.1017
▁JSON	-10.1027
▁priority	-10.1028
▁note	-10.1044
▁sh	-10.1045
▁pr	-10.1059
▁Re	-10.1059
▁storage	-10.1082
▁verify	-10.1082
▁plot	-10.1087
▁redirect	-10.1094
Invalid	-10.1096
▁slug	-10.1121
filters	-10.1122
▁public	-10.1125
▁private	-10.1128
-%	-10.1145
▁tenant	-10.1148
SE	-10.115
sh	-10.1164
images	-10.1164
attribute	-10.1176
mp	-10.1188
ver	-10.1193
▁exclude	-10.1198
▁pid	-10.1224
lat	-10.1229
render	-10.1238
Output	-10.1257
success	-10.1263
simple	-10.1263
timestamp	-10.1265
mapping	-10.1265
child	-10.1265
▁application	-10.1266
stack	-10.128
ted	-10.1324
▁download	-10.1327
ac	-10.133
diff	-10.1332
use	-10.1351
Returns	-10.1354
vm	-10.136
parts	-10.1362
▁exceptions	-10.1365
pred	-10.137
top	-10.1397
controller	-10.1402
▁StringIO	-10.1402
Return	-10.1405
▁support	-10.1414
almost	-10.1414
▁fit	-10.1414
▁opt	-10.1416
li	-10.1417
▁subprocess	-10.1431
▁period	-10.1433
▁tensor	-10.1434
▁direction	-10.1434
▁trans	-10.1436
▁reason	-10.1449
▁Return	-10.1452
▁pd	-10.1453
▁existing	-10.1456
▁fixed	-10.1466
▁lib	-10.1475
▁common	-10.148
▁2.0	-10.1485
▁subnet	-10.1486
▁missing	-10.1491
SI	-10.1491
▁author	-10.1501
▁some	-10.1505
▁install	-10.1521
fs	-10.1521
▁related	-10.1526
https	-10.1546
▁edit	-10.1547
la	-10.1549
close	-10.157
▁fp	-10.1572
ops	-10.1576
detail	-10.1584
1/	-10.1593
document	-10.1596
40	-10.1598
▁dist	-10.1628
entity	-10.1654
48	-10.1658
▁loc	-10.1661
security	-10.1678
some	-10.1678
down	-10.1679
Image	-10.168
loop	-10.1681
height	-10.1681
OK	-10.1681
HTTP	-10.1681
directory	-10.1681
rule	-10.1682
debug	-10.1682
flow	-10.1683
Core	-10.1683
▁example	-10.1689
only	-10.169
changed	-10.1695
404	-10.1707
]\	-10.1708
▁prev	-10.1726
▁hostname	-10.1735
ay	-10.1773
75	-10.1781
▁feature	-10.1789
prot	-10.1789
12	-10.1794
dist	-10.1798
IP	-10.1806
▁ds	-10.1816
▁sess	-10.1818
Count	-10.1819
Filter	-10.1819
Layout	-10.1819
Button	-10.1819
▁0.1	-10.1826
core	-10.1827
rtype	-10.1827
▁more	-10.1837
df	-10.1839
▁serializer	-10.1849
▁rng	-10.1858
pi	-10.1865
▁kernel	-10.1876
oc	-10.1877
▁fill	-10.1878
exp	-10.1881
▁setattr	-10.1884
▁dummy	-10.1888
▁player	-10.1889
▁interface	-10.1892
▁transform	-10.1894
▁proc	-10.1897
ng	-10.19
▁gr	-10.1902
▁resources	-10.1903
▁constant	-10.1918
▁desc	-10.1923
▁reset	-10.1926
'"	-10.1928
▁provider	-10.1933
▁choices	-10.1938
▁pkg	-10.1941
▁AS	-10.1941
`\	-10.1943
▁Image	-10.196
▁404	-10.1963
▁mapping	-10.1966
▁word	-10.1978
th	-10.1985
13	-10.1985
▁requests	-10.1994
▁updated	-10.1997
▁win	-10.2001
▁gf	-10.2003
pk	-10.2014
▁filters	-10.2032
▁flags	-10.2035
connect	-10.2042
users	-10.2065
▁zone	-10.2087
IT	-10.209
Status	-10.2091
fail	-10.2106
handle	-10.2107
join	-10.2107
Service	-10.2113
Command	-10.2113
batch	-10.2114
series	-10.2115
public	-10.2115
properties	-10.2115
random	-10.2117
logger	-10.2117
exit	-10.2118
util	-10.2121
find	-10.2121
import	-10.2125
OS	-10.2133
19	-10.2155
ify	-10.2155
▁review	-10.218
ca	-10.2184
"'	-10.2196
▁menu	-10.2204
cleaned	-10.2226
▁its	-10.2233
ick	-10.2238
Version	-10.2247
Token	-10.2254
www	-10.2254
Address	-10.2254
From	-10.2255
▁ind	-10.2257
▁take	-10.2258
▁information	-10.2269
▁pretty	-10.2282
▁final	-10.2286
▁region	-10.2287
▁Column	-10.2294
▁enable	-10.2301
▁io	-10.2302
▁configure	-10.2306
▁push	-10.2313
▁plan	-10.2314
▁month	-10.232
▁train	-10.2327
▁failed	-10.2333
▁bit	-10.2335
md	-10.2336
▁ca	-10.2336
▁head	-10.2339
▁dst	-10.234
layer	-10.2356
do	-10.2369
▁variables	-10.2373
▁nx	-10.2388
▁shared	-10.2389
▁equal	-10.239
▁prob	-10.2394
bit	-10.2404
▁stack	-10.2408
css	-10.2438
▁real	-10.2439
ff	-10.2447
axis	-10.2458
▁{}'	-10.2459
▁sent	-10.2461
▁POST	-10.2464
▁locale	-10.2493
33	-10.2523
attrs	-10.2545
tx	-10.2551
help	-10.2552
datetime	-10.2553
ther	-10.2557
install	-10.2561
Widget	-10.2566
definition	-10.2566
cloud	-10.2567
rules	-10.2568
cert	-10.2569
related	-10.2569
slug	-10.257
property	-10.257
This	-10.2571
shared	-10.2572
enabled	-10.2573
driver	-10.2574
▁In	-10.2578
main	-10.2583
slice	-10.2594
ping	-10.2606
/{	-10.2618
LE	-10.2624
▁labels	-10.2646
sys	-10.267
samples	-10.2676
▁':'	-10.2685
▁member	-10.2705
▁also	-10.2708
balance	-10.2708
Host	-10.2708
NotFound	-10.2709
▁oprot	-10.2711
▁timedelta	-10.2711
▁uid	-10.2714
Code	-10.2714
▁second	-10.2727
▁permission	-10.2732
▁interval	-10.2733
▁distance	-10.2738
▁matching	-10.2754
▁reply	-10.2759
▁dim	-10.276
▁generator	-10.2764
▁unique	-10.2764
▁selection	-10.2769
▁weight	-10.2777
▁kind	-10.2786
▁compile	-10.279
▁ui	-10.2794
▁single	-10.2802
▁sock	-10.2803
▁details	-10.2822
▁forms	-10.2828
▁ok	-10.2829
▁proxy	-10.283
OR	-10.283
pre	-10.2838
24	-10.2845
ill	-10.2849
▁scale	-10.2867
▁success	-10.2869
score	-10.2874
▁cb	-10.2892
▁python	-10.2909
eg	-10.2912
▁django	-10.2949
iff	-10.296
For	-10.2961
▁points	-10.3001
co	-10.3005
▁so	-10.3028
▁Key	-10.3028
mod	-10.3031
select	-10.3032
upload	-10.3044
hook	-10.3045
empty	-10.3046
region	-10.3047
marker	-10.3062
▁ids	-10.3068
exists	-10.3076
pt	-10.3092
hosts	-10.3098
▁keyword	-10.3104
ra	-10.3109
▁255	-10.3112
ve	-10.3136
ine	-10.3137
changes	-10.3141
gen	-10.3148
columns	-10.3173
▁coll	-10.3175
cli	-10.3177
▁mean	-10.3181
effect	-10.3183
Label	-10.3184
▁HttpResponse	-10.3185
▁defaults	-10.3186
Could	-10.3189
],	-10.3191
resources	-10.3195
Comp	-10.3197
▁encoded	-10.3202
▁program	-10.3202
▁your	-10.3203
▁Note	-10.3211
em	-10.3213
▁Example	-10.3215
▁warn	-10.3221
▁validator	-10.3222
▁matches	-10.3227
▁font	-10.3229
▁most	-10.324
inter	-10.3243
▁con	-10.3248
▁duration	-10.325
lock	-10.3251
▁allowed	-10.3256
▁machine	-10.3257
org	-10.3257
▁U	-10.3261
▁snapshot	-10.3264
▁shell	-10.3264
▁export	-10.3264
▁mapper	-10.3265
▁thread	-10.3273
▁16	-10.3275
▁wrapper	-10.3277
contents	-10.328
▁For	-10.3285
▁mark	-10.3287
▁comp	-10.3288
ps	-10.3297
▁Sub	-10.3298
▁bad	-10.3299
▁struct	-10.3305
▁lookup	-10.3305
25	-10.3311
edge	-10.3313
▁area	-10.3319
ct	-10.3341
▁simple	-10.3354
▁mac	-10.3355
▁repr	-10.3371
▁warnings	-10.3399
▁per	-10.3399
By	-10.3401
expr	-10.3409
256	-10.342
20	-10.3428
ia	-10.3434
2.	-10.3445
System	-10.3446
mo	-10.3449
▁core	-10.3453
zone	-10.3454
▁di	-10.3454
ON	-10.3456
dim	-10.3467
▁ch	-10.3486
▁side	-10.3488
work	-10.3512
instances	-10.3518
▁15	-10.3523
60	-10.3532
complete	-10.3532
▁cols	-10.354
J	-10.3541
expression	-10.3542
clean	-10.3544
zero	-10.3544
owner	-10.3545
include	-10.3546
bucket	-10.3546
scope	-10.3546
agent	-10.3547
split	-10.3548
pkg	-10.355
binding	-10.355
And	-10.3553
append	-10.3555
▁methods	-10.3556
ha	-10.3558
One	-10.3564
AT	-10.3572
flags	-10.3576
hint	-10.3576
▁modules	-10.3588
▁ndim	-10.3597
objects	-10.3601
span	-10.3604
created	-10.362
seconds	-10.3623
ST	-10.3645
56	-10.3648
dis	-10.3658
stop	-10.3662
With	-10.3675
Cache	-10.3682
TIME	-10.3684
DATA	-10.3684
▁partial	-10.3684
Record	-10.3685
▁theano	-10.3685
Container	-10.3685
▁following	-10.3688
conn	-10.3689
▁chart	-10.3694
▁norm	-10.3694
▁tx	-10.3695
ug	-10.3699
Date	-10.3706
▁utc	-10.371
▁orig	-10.3713
▁best	-10.3713
▁beta	-10.3715
▁math	-10.3719
▁words	-10.372
▁stat	-10.372
calls	-10.3721
▁scheme	-10.3724
tags	-10.3726
Parser	-10.3732
▁extract	-10.3736
ad	-10.3736
▁hook	-10.374
▁power	-10.374
▁multiple	-10.3746
lo	-10.3752
▁ae	-10.3754
▁named	-10.3754
▁transport	-10.3757
▁execution	-10.376
▁within	-10.3763
▁IO	-10.3771
▁amount	-10.3783
▁day	-10.3786
▁low	-10.3787
▁tz	-10.3796
ard	-10.3804
▁selected	-10.3807
▁reference	-10.3811
links	-10.3817
▁owner	-10.3829
▁It	-10.3845
▁down	-10.385
▁days	-10.385
▁marker	-10.3851
▁ct	-10.3861
back	-10.3891
▁classes	-10.3891
ake	-10.3892
uid	-10.3924
▁language	-10.3928
▁"%	-10.3964
▁30	-10.3984
▁ones	-10.4021
▁cl	-10.4031
author	-10.4051
sentin	-10.4052
chain	-10.4058
wait	-10.4065
regex	-10.4068
Log	-10.4068
pass	-10.4068
delta	-10.4069
binary	-10.407
ack	-10.4071
proxy	-10.4071
provider	-10.4072
master	-10.4072
payload	-10.4073
API	-10.4074
folder	-10.4074
interval	-10.4075
Add	-10.4076
repr	-10.4078
Input	-10.4114
reg	-10.4116
pack	-10.4127
▁isfile	-10.4132
dtype	-10.4133
cf	-10.4134
states	-10.4159
roles	-10.4186
15	-10.42
Frame	-10.4209
Exit	-10.421
PATH	-10.421
Length	-10.4211
▁minimum	-10.4211
▁See	-10.4213
▁httplib	-10.4216
NotExist	-10.4227
Box	-10.4227
▁times	-10.4236
▁Py	-10.4237
▁primary	-10.4238
ho	-10.4245
▁Integer	-10.4247
▁algorithm	-10.4253
CC	-10.4255
▁different	-10.426
ue	-10.4264
▁pad	-10.4267
▁strict	-10.4275
▁O	-10.4275
▁vector	-10.4277
mat	-10.428
cp	-10.428
▁slice	-10.4281
▁control	-10.4283
▁begin	-10.4283
sym	-10.4284
cat	-10.4287
▁setdefault	-10.4288
▁external	-10.4291
▁integer	-10.4299
▁runner	-10.4302
nova	-10.4304
▁tokens	-10.4306
▁cos	-10.4308
▁trace	-10.4316
▁orm	-10.4326
▁arr	-10.4329
ir	-10.4329
▁branch	-10.4329
book	-10.4331
▁DB	-10.4332
none	-10.4338
UI	-10.434
actions	-10.4341
▁complete	-10.4348
ma	-10.4356
▁elt	-10.4361
strip	-10.4363
tasks	-10.4366
ts	-10.4374
▁score	-10.4382
▁weights	-10.4388
▁IP	-10.439
▁states	-10.441
tp	-10.4411
▁tol	-10.4454
02	-10.4468
▁Instance	-10.4472
99	-10.4487
mac	-10.4489
▁plugins	-10.4518
generate	-10.4519
▁co	-10.452
zip	-10.4524
ti	-10.4526
permission	-10.4536
▁Model	-10.4545
▁Un	-10.4548
mark	-10.4551
boot	-10.4564
TO	-10.4571
▁String	-10.4571
EX	-10.4576
struct	-10.4588
expected	-10.4617
Volume	-10.4621
Server	-10.4622
ally	-10.4623
prop	-10.4623
modified	-10.4624
reference	-10.4625
copy	-10.4626
lookup	-10.4627
menu	-10.4627
yaml	-10.4627
URL	-10.4628
compute	-10.4628
display	-10.4628
cursor	-10.4629
encoding	-10.4629
desc	-10.463
▁back	-10.4632
patch	-10.4632
cu	-10.4649
comp	-10.465
▁sa	-10.4651
0.0	-10.4661
sql	-10.467
added	-10.4674
bad	-10.4694
abs	-10.4703
lr	-10.4721
times	-10.4724
▁//	-10.4762
sig	-10.4766
Style	-10.4766
Obj	-10.4766
Util	-10.4766
hello	-10.4766
▁traj	-10.4768
▁term	-10.4768
ance	-10.4773
Job	-10.4774
▁tm	-10.4775
▁suite	-10.4787
▁CONF	-10.4787
▁inspect	-10.4787
HttpRequest	-10.479
▁dup	-10.4792
3.0	-10.4793
lu	-10.4798
▁previous	-10.4801
▁Does	-10.4803
▁world	-10.4803
▁blank	-10.4803
▁generated	-10.4813
▁eval	-10.4817
▁HTML	-10.4819
▁actor	-10.483
▁than	-10.4835
▁edge	-10.4835
DIR	-10.4841
▁statement	-10.4841
▁fh	-10.4847
▁internal	-10.4859
▁blob	-10.4867
geo	-10.4869
▁mu	-10.4871
▁commands	-10.4876
▁My	-10.488
▁rest	-10.4884
▁bind	-10.4885
validate	-10.489
▁consumer	-10.4892
▁usage	-10.4892
▁rec	-10.4895
▁yaml	-10.491
▁edges	-10.4926
▁series	-10.4949
▁OK	-10.4958
cc	-10.4991
▁blocks	-10.4994
▁addr	-10.5008
ta	-10.5014
▁sr	-10.5017
▁Event	-10.5031
▁sha	-10.5036
▁images	-10.5049
▁steps	-10.5054
fi	-10.5054
▁Item	-10.5056
features	-10.5077
63	-10.5078
**	-10.5084
.%	-10.5102
ap	-10.5107
second	-10.511
global	-10.5125
tables	-10.5136
▁nan	-10.5142
ds	-10.5159
ck	-10.5168
rel	-10.5174
▁60	-10.5186
ea	-10.5189
▁whe	-10.5195
available	-10.5215
platform	-10.5216
exec	-10.5216
chunk	-10.5216
redirect	-10.5217
alpha	-10.5217
remote	-10.5217
subnet	-10.5217
found	-10.5219
Sub	-10.5219
sha	-10.5221
ls	-10.5222
setup	-10.5228
done	-10.523
man	-10.524
report	-10.5245
▁0.2	-10.5254
vals	-10.5268
▁cc	-10.5281
▁variable	-10.5286
sa	-10.5288
▁seed	-10.5299
▁cp	-10.5307
Handle	-10.5346
▁construct	-10.5351
Mode	-10.5351
ix	-10.5354
Child	-10.5354
Control	-10.5354
Account	-10.5355
▁sublime	-10.5355
▁<<	-10.5362
▁byte	-10.5374
▁regex	-10.5374
▁resolve	-10.5381
▁elem	-10.5384
localhost	-10.5386
▁Con	-10.5389
▁feed	-10.5391
▁traceback	-10.5394
▁iterable	-10.5399
▁game	-10.5402
▁flush	-10.5403
▁ID	-10.5407
▁destination	-10.541
▁reactor	-10.5412
▁lang	-10.5414
▁ffi	-10.5415
▁entries	-10.542
▁pipeline	-10.542
▁clear	-10.5428
▁panel	-10.5434
▁dispatch	-10.5436
▁quote	-10.544
▁serialize	-10.5446
▁multi	-10.5464
▁mem	-10.5465
od	-10.5468
▁running	-10.5472
1,	-10.5473
ok	-10.5477
▁contains	-10.548
▁year	-10.5488
▁loader	-10.549
▁requires	-10.5491
▁'*'	-10.5505
▁folder	-10.5514
▁master	-10.5516
▁File	-10.5528
▁normal	-10.5544
▁loop	-10.5561
▁Invalid	-10.557
▁counter	-10.5571
▁inline	-10.5587
▁invalid	-10.5621
▁AndR	-10.5626
▁'{0}	-10.5635
128	-10.5636
▁Check	-10.5636
▁lb	-10.5643
ud	-10.5656
err	-10.5695
47	-10.5702
0000	-10.5707
▁added	-10.5708
tests	-10.5725
route	-10.5734
sets	-10.575
subclass	-10.5754
ratio	-10.5772
▁sm	-10.5777
▁ph	-10.5786
.*	-10.5787
▁samples	-10.5791
58	-10.5803
sync	-10.5809
▁elements	-10.5815
non	-10.5818
Config	-10.5825
Start	-10.5827
alias	-10.5831
Unknown	-10.5831
baz	-10.5833
Number	-10.5834
App	-10.5837
branch	-10.5837
drop	-10.5838
digest	-10.5838
fixture	-10.5839
indices	-10.5839
year	-10.5839
consumer	-10.584
AN	-10.584
usage	-10.5841
grid	-10.5841
plot	-10.5841
insert	-10.5842
crc	-10.5842
extra	-10.5843
missing	-10.5845
product	-10.5845
rpc	-10.5846
forward	-10.5847
rp	-10.5852
Foo	-10.5854
▁true	-10.5859
record	-10.586
Args	-10.5873
▁need	-10.5886
END	-10.5889
oauth	-10.589
▁symbol	-10.5919
84	-10.5921
counter	-10.5925
70	-10.5926
processed	-10.5938
▁{1}	-10.5946
%(	-10.5949
▁flat	-10.5964
Win	-10.597
▁transaction	-10.5973
Dictionary	-10.598
Search	-10.598
Deferred	-10.598
Flag	-10.598
▁sqrt	-10.598
sudo	-10.598
▁exog	-10.598
LECT	-10.598
Color	-10.5981
▁want	-10.5982
▁dialect	-10.5985
▁high	-10.5993
speed	-10.5999
▁between	-10.6003
exceptions	-10.6003
pages	-10.6003
▁packet	-10.6004
US	-10.6006
5'	-10.6013
testing	-10.6013
▁accept	-10.6025
▁No	-10.6026
▁retry	-10.6035
▁tail	-10.6039
▁fs	-10.604
▁trigger	-10.6048
▁stmt	-10.6048
Initialize	-10.6052
ne	-10.6057
▁environment	-10.6059
▁sequence	-10.6067
▁move	-10.6077
▁Template	-10.6085
▁scalar	-10.6085
▁present	-10.6085
▁memory	-10.6094
▁merge	-10.6099
ET	-10.61
ram	-10.6101
])	-10.6103
▁flavor	-10.6104
▁async	-10.6105
▁two	-10.6106
De	-10.6112
▁cached	-10.6121
ang	-10.6123
>`	-10.6136
([	-10.6136
br	-10.6137
vars	-10.6146
▁chain	-10.615
")	-10.6154
pl	-10.6155
▁tasks	-10.6161
▁deleted	-10.6165
ting	-10.6165
On	-10.6165
▁binding	-10.6169
▁lock	-10.6169
17	-10.6171
▁Time	-10.6183
ENT	-10.6201
▁targets	-10.622
▁secret	-10.6234
multi	-10.6235
▁cells	-10.6239
▁std	-10.6239
▁List	-10.6247
eturn	-10.6252
ge	-10.6253
">	-10.6259
▁cookie	-10.6279
7.	-10.6284
UT	-10.6285
.3	-10.6288
go	-10.6298
▁Message	-10.6299
``\	-10.6316
tempfile	-10.6323
▁like	-10.6328
31	-10.6341
14	-10.6391
ATION	-10.6393
CL	-10.641
ence	-10.6418
▁outputs	-10.642
pattern	-10.6427
cols	-10.6429
Point	-10.6434
▁see	-10.6438
▁rules	-10.6441
39	-10.6456
rb	-10.6468
▁const	-10.647
div	-10.6477
fetch	-10.6484
equals	-10.6486
ignore	-10.6494
▁>>	-10.6495
long	-10.6497
FILE	-10.6497
▁returns	-10.6502
head	-10.6502
Port	-10.6503
wrap	-10.6503
Array	-10.6504
button	-10.6505
history	-10.6505
merge	-10.6506
sock	-10.6506
tmp	-10.6507
storage	-10.6507
single	-10.6508
engine	-10.6508
verify	-10.6508
norm	-10.6508
member	-10.6508
category	-10.6508
Resource	-10.6509
should	-10.651
signal	-10.651
card	-10.6511
ssl	-10.6515
▁\'	-10.6516
Valid	-10.652
thing	-10.6528
cpu	-10.6531
DB	-10.6536
Of	-10.6536
arr	-10.6555
▁Data	-10.6562
fit	-10.6566
namespace	-10.6572
▁choice	-10.6581
▁require	-10.6587
place	-10.6598
▁track	-10.6612
2.0	-10.6615
▁typ	-10.6618
Actor	-10.6625
▁testing	-10.6632
Auth	-10.6642
▁40	-10.6642
watch	-10.6646
REQUEST	-10.6646
monitor	-10.6646
Device	-10.6646
Expression	-10.6646
Hello	-10.6646
Proxy	-10.6646
▁failUnless	-10.6646
Target	-10.6646
Link	-10.6646
until	-10.6646
▁either	-10.6648
PIPE	-10.6648
▁both	-10.6649
▁setUp	-10.665
Role	-10.6651
cidr	-10.6661
▁klass	-10.6661
▁addCallback	-10.6664
▁curr	-10.6667
ssh	-10.6673
▁basestring	-10.6675
▁peer	-10.6681
▁prepare	-10.6686
▁assertDict	-10.6692
▁callable	-10.6697
▁editor	-10.6697
handlers	-10.6698
side	-10.6698
▁hours	-10.67
▁defined	-10.67
▁precision	-10.67
▁25	-10.6702
▁fixture	-10.6703
▁progress	-10.671
▁arc	-10.6714
▁supported	-10.6715
▁paths	-10.6717
▁round	-10.6721
▁32	-10.6722
▁axes	-10.6724
▁customer	-10.6725
▁identity	-10.6728
eed	-10.6732
volumes	-10.6735
rec	-10.6737
▁boolean	-10.674
▁media	-10.6749
pid	-10.6749
▁fmt	-10.675
▁glob	-10.6752
IF	-10.6755
▁web	-10.6755
▁Default	-10.6759
rating	-10.6764
5.0	-10.6767
▁registry	-10.6769
88	-10.6777
▁freq	-10.6785
▁Port	-10.6789
▁history	-10.6789
▁Resource	-10.6793
notify	-10.6802
`,	-10.6804
▁worker	-10.6806
▁fast	-10.6811
▁relation	-10.6816
▁addon	-10.6821
▁cloud	-10.6859
▁there	-10.6859
plain	-10.6862
urn	-10.6875
Not	-10.6886
▁permissions	-10.6905
▁metrics	-10.6912
▁alt	-10.6926
labels	-10.6927
▁disk	-10.6929
▁Client	-10.6936
▁cond	-10.6938
▁xs	-10.6938
▁Index	-10.6939
▁el	-10.695
Min	-10.6961
ctx	-10.6993
AS	-10.6994
▁actions	-10.6999
▁off	-10.7001
js	-10.7029
▁defer	-10.7035
▁GET	-10.7042
▁records	-10.7067
Dir	-10.7072
▁ix	-10.7072
encode	-10.7085
prep	-10.7086
serialize	-10.7115
EC	-10.7133
sc	-10.7147
▁cv	-10.7199
▁sign	-10.7204
csv	-10.7213
execute	-10.7215
summary	-10.7215
factor	-10.7216
ERROR	-10.7216
meth	-10.7216
release	-10.7219
failure	-10.7219
shift	-10.7219
download	-10.7219
stub	-10.7219
flavor	-10.722
home	-10.722
running	-10.7221
iteration	-10.7221
common	-10.7222
section	-10.7222
register	-10.7222
configuration	-10.7222
convert	-10.7222
wrapper	-10.7222
bool	-10.7223
when	-10.7223
mean	-10.7224
opt	-10.7227
▁proto	-10.7227
two	-10.723
selected	-10.7234
Op	-10.7241
tion	-10.725
▁links	-10.7256
database	-10.7257
CH	-10.7257
trace	-10.7258
bind	-10.7272
ast	-10.7277
▁structure	-10.7278
deleted	-10.728
null	-10.7283
requests	-10.7288
▁400	-10.7288
cast	-10.729
▁bound	-10.7293
▁sin	-10.7301
▁42	-10.7301
ba	-10.7315
IS	-10.7335
▁issue	-10.7335
rep	-10.7342
receive	-10.7347
▁tool	-10.7358
Spec	-10.736
Graph	-10.736
Collection	-10.736
▁RE	-10.736
▁distribution	-10.736
LOAD	-10.736
artist	-10.736
Order	-10.7361
Entry	-10.7361
STRING	-10.7361
Tree	-10.7361
Execution	-10.7361
▁assertIsNot	-10.7361
▁Fake	-10.7362
]+	-10.7363
Redirect	-10.7364
TABLE	-10.7373
▁Parse	-10.7376
▁through	-10.7377
ind	-10.7385
▁repeat	-10.7387
▁retrieve	-10.7388
▁stored	-10.7391
abc	-10.7393
▁errno	-10.7397
_%	-10.7398
foobar	-10.7398
0,	-10.7399
▁dec	-10.7403
threads	-10.7405
rm	-10.7405
▁expand	-10.7406
▁article	-10.7408
▁dependencies	-10.7408
▁deployment	-10.7409
obs	-10.7409
Hash	-10.741
▁Log	-10.7415
hostname	-10.7416
▁these	-10.7416
tic	-10.7421
▁sep	-10.7426
▁standard	-10.7429
▁recent	-10.743
▁escape	-10.7437
reboot	-10.7438
▁suffix	-10.744
▁selector	-10.7446
▁rm	-10.7446
▁deploy	-10.745
▁future	-10.745
▁placeholder	-10.745
▁depth	-10.7451
▁partition	-10.7451
▁safe	-10.7452
▁fun	-10.7453
▁tests	-10.7461
hose	-10.7461
constant	-10.7467
▁loss	-10.7483
arguments	-10.7487
▁home	-10.7504
▁button	-10.7514
▁started	-10.7518
▁cpu	-10.7524
▁digest	-10.7525
▁char	-10.7529
hat	-10.7531
▁sync	-10.7532
▁NOT	-10.7535
▁exec	-10.7538
▁servers	-10.7542
05	-10.7543
▁writer	-10.7549
▁binary	-10.7557
allclose	-10.7557
aws	-10.7566
▁reader	-10.7568
Dis	-10.7576
ty	-10.7585
▁cert	-10.7588
alloc	-10.7588
▁security	-10.759
▁inputs	-10.7591
▁Service	-10.76
▁Command	-10.76
commands	-10.7603
▁enabled	-10.761
3,	-10.7614
,%	-10.7616
▁pt	-10.762
▁Task	-10.7633
▁ports	-10.7636
▁helper	-10.7649
gt	-10.7655
stat	-10.7664
▁300	-10.7682
Tag	-10.769
ips	-10.7696
().	-10.7698
▁features	-10.7701
▁Table	-10.7707
reset	-10.771
(%	-10.7722
▁Query	-10.773
att	-10.7732
servers	-10.7732
▁pickle	-10.7732
Run	-10.7734
▁components	-10.7738
OL	-10.7773
act	-10.7792
vec	-10.78
▁changes	-10.7818
37	-10.7819
Var	-10.7822
▁Path	-10.7828
inst	-10.7871
ports	-10.7885
Attribute	-10.7897
extension	-10.7898
setting	-10.7903
warning	-10.7904
▁gl	-10.7907
▁Use	-10.792
mul	-10.7933
ee	-10.7951
▁schedule	-10.7954
stf	-10.7958
Stack	-10.7972
board	-10.7977
Function	-10.7979
Thread	-10.7983
Module	-10.7983
Method	-10.7983
URI	-10.7985
absolute	-10.7986
custom	-10.7986
``,	-10.7986
dump	-10.7987
Session	-10.7988
center	-10.7988
registry	-10.7989
memory	-10.7989
blob	-10.799
before	-10.7992
after	-10.7992
transform	-10.7992
Base	-10.7992
stderr	-10.7992
decode	-10.7996
amount	-10.7996
any	-10.7998
Options	-10.7999
00.0	-10.8002
numpy	-10.8003
relation	-10.8017
freq	-10.8024
train	-10.8025
{}'	-10.8026
networks	-10.8026
LOG	-10.803
▁ev	-10.8051
components	-10.8059
proc	-10.8063
cached	-10.8065
123	-10.8077
updated	-10.8089
ident	-10.809
ring	-10.8092
CE	-10.8096
manage	-10.8105
▁constraint	-10.8109
▁pair	-10.8114
permissions	-10.8118
▁inc	-10.8118
ox	-10.8123
><	-10.8124
▁own	-10.8125
▁pane	-10.8126
Plug	-10.8126
reflect	-10.813
Channel	-10.813
Matrix	-10.813
PREFIX	-10.813
▁NotImplemented	-10.813
▁maximum	-10.813
Local	-10.813
ware	-10.813
CASE	-10.813
Domain	-10.813
such	-10.813
▁otherwise	-10.813
scribe	-10.813
Select	-10.813
▁because	-10.8131
Serializer	-10.8132
Only	-10.8132
mgr	-10.8132
▁keep	-10.8132
dd	-10.8135
▁perm	-10.8136
End	-10.814
▁rdf	-10.8142
▁retval	-10.8143
IO	-10.8143
ub	-10.8144
less	-10.8146
▁predicate	-10.8147
▁attrib	-10.8147
▁dialog	-10.8147
Database	-10.8149
blueprint	-10.8149
Block	-10.8149
many	-10.8153
▁manifest	-10.8158
▁background	-10.8158
▁thumbnail	-10.8159
▁urllib	-10.8161
▁their	-10.8164
▁virtual	-10.817
▁queries	-10.8174
ities	-10.8175
▁Compute	-10.8181
▁iterator	-10.8181
▁li	-10.8182
▁Multi	-10.8183
▁translation	-10.8183
interfaces	-10.8191
▁reshape	-10.8191
packages	-10.8192
▁aggregate	-10.8192
▁setting	-10.8196
resp	-10.8211
▁lineno	-10.8215
rac	-10.8215
▁nested	-10.8216
Co	-10.8216
▁wx	-10.8226
▁notification	-10.8227
▁cwd	-10.8227
999	-10.823
cb	-10.8232
▁outfile	-10.8232
▁href	-10.8235
▁Document	-10.8239
▁family	-10.8239
▁datastore	-10.8241
NO	-10.8242
▁rev	-10.8253
89	-10.8263
▁zero	-10.8264
▁Session	-10.8273
▁center	-10.8273
An	-10.8279
▁Point	-10.8297
▁ssl	-10.8298
▁drop	-10.8303
▁conv	-10.8306
▁Config	-10.8308
▁indices	-10.831
▁nodelist	-10.8313
▁0.3	-10.8325
{0}	-10.8333
our	-10.8334
▁tb	-10.8336
ttl	-10.8338
unit	-10.8343
=1	-10.8364
"\	-10.8364
▁forward	-10.8375
amp	-10.8377
▁11	-10.8386
oid	-10.8389
band	-10.8389
▁cx	-10.8395
▁versions	-10.8397
IC	-10.8403
here	-10.843
channels	-10.8455
bash	-10.8456
▁mail	-10.8462
▁units	-10.8462
Or	-10.8472
services	-10.8478
▁fid	-10.8484
ope	-10.851
ov	-10.8525
rev	-10.855
ash	-10.8558
▁packages	-10.8576
▁don	-10.8584
▁roles	-10.8587
low	-10.8591
*'	-10.8593
rt	-10.8595
Format	-10.8597
projects	-10.8606
buf	-10.8639
▁box	-10.8643
sent	-10.8644
sider	-10.8645
rot	-10.8646
dst	-10.8699
arm	-10.8699
▁Whe	-10.8708
▁sw	-10.8712
bound	-10.8723
07	-10.8735
▁An	-10.8754
iso	-10.8761
used	-10.8772
38	-10.8778
▁align	-10.8786
char	-10.8805
Load	-10.8815
Process	-10.8816
Render	-10.8816
condition	-10.8818
track	-10.8819
docker	-10.8819
present	-10.8821
Network	-10.8822
Update	-10.8822
Plugin	-10.8822
web	-10.8822
Default	-10.8822
scalar	-10.8823
internal	-10.8823
loss	-10.8823
integer	-10.8823
snapshot	-10.8824
dummy	-10.8824
shell	-10.8824
children	-10.8825
original	-10.8825
logging	-10.8826
kind	-10.8827
Template	-10.8829
this	-10.8831
mapper	-10.8832
runner	-10.8832
▁dc	-10.8834
async	-10.8835
builder	-10.8848
endpoint	-10.8857
helper	-10.8857
Header	-10.8869
subscription	-10.887
worker	-10.8878
dot	-10.8879
If	-10.8887
rain	-10.8888
oeff	-10.8898
▁Open	-10.8919
warnings	-10.8924
55	-10.8934
der	-10.8937
▁pub	-10.8938
records	-10.8946
ll	-10.8948
▁evaluate	-10.895
▁CLI	-10.8956
▁what	-10.8958
DataCache	-10.8961
policies	-10.8962
reduce	-10.8963
▁advance	-10.8963
Stream	-10.8963
negative	-10.8963
CREATE	-10.8963
INFO	-10.8963
VERSION	-10.8963
Accept	-10.8963
FROM	-10.8963
Logger	-10.8963
Wrapper	-10.8963
Location	-10.8963
Title	-10.8963
terminal	-10.8963
ascii	-10.8963
Pool	-10.8963
generic	-10.8963
google	-10.8963
▁Ordered	-10.8963
VarInt	-10.8963
Store	-10.8963
▁worksheet	-10.8963
▁against	-10.8963
▁coil	-10.8964
▁least	-10.8965
▁scenario	-10.8966
vlan	-10.8966
▁stdin	-10.8968
term	-10.8968
Timestamp	-10.8971
deepcopy	-10.8972
▁formatted	-10.8974
lay	-10.8976
="%	-10.8979
▁dat	-10.898
ient	-10.898
▁activation	-10.8982
▁uniform	-10.8983
Metadata	-10.8988
▁compiler	-10.8988
ible	-10.8989
ationError	-10.899
▁decimal	-10.8994
▁workflow	-10.8995
PUT	-10.8997
Print	-10.8998
▁AF	-10.8999
▁registered	-10.9004
1.5	-10.9005
▁serial	-10.9006
▁canvas	-10.9007
details	-10.9013
▁answer	-10.9019
▁irc	-10.902
▁fire	-10.9021
68	-10.9021
▁clone	-10.9022
▁rc	-10.9023
Settings	-10.9023
Expected	-10.9025
▁unset	-10.9027
▁pipe	-10.903
▁room	-10.9032
play	-10.9035
▁mount	-10.9038
▁installed	-10.9038
▁categories	-10.9044
▁signature	-10.9044
▁switch	-10.9044
▁poll	-10.9044
▁fig	-10.9045
▁ra	-10.9048
▁resolver	-10.9052
▁pa	-10.9055
▁24	-10.9059
}/	-10.9064
▁bot	-10.9067
const	-10.9074
redit	-10.9079
▁console	-10.9082
elements	-10.9086
97	-10.9087
win	-10.9089
ie	-10.9091
Values	-10.9091
▁confirm	-10.9093
▁segment	-10.9094
▁relative	-10.9094
▁angle	-10.9095
pin	-10.9095
▁rect	-10.9098
▁completed	-10.9102
▁keyid	-10.9104
▁Network	-10.9105
▁App	-10.9109
▁impl	-10.9111
▁cost	-10.9116
{1}'	-10.9125
▁shift	-10.9132
▁release	-10.9133
▁stub	-10.9133
▁Valid	-10.9135
plugins	-10.9135
DE	-10.9137
▁floating	-10.9138
▁based	-10.9141
ized	-10.9143
▁Array	-10.9145
▁thing	-10.9149
press	-10.915
▁needs	-10.9157
▁ssh	-10.9164
docs	-10.9165
▁bounds	-10.9166
▁pairs	-10.917
dk	-10.917
TER	-10.9176
▁mocked	-10.9197
▁expression	-10.9208
▁System	-10.9209
mem	-10.9218
OUT	-10.9224
▁dims	-10.9231
asarray	-10.9234
vert	-10.9235
IsA	-10.9235
▁Error	-10.9237
▁'{}	-10.9237
ell	-10.9245
+'	-10.9252
▁tab	-10.9252
LS	-10.9254
35	-10.9255
▁ep	-10.9257
bd	-10.926
LO	-10.9261
▁extensions	-10.9276
Pre	-10.9295
->	-10.9299
59	-10.9308
▁interfaces	-10.9309
pc	-10.9316
62	-10.9317
views	-10.932
▁cons	-10.9337
79	-10.9338
gui	-10.9339
▁raises	-10.9342
▁ii	-10.9345
addon	-10.9349
▁dic	-10.9378
▁tile	-10.9379
▁cov	-10.9381
▁Context	-10.9391
Tests	-10.9394
▁ring	-10.94
neg	-10.9404
ep	-10.9412
ME	-10.9417
▁Int	-10.9462
hi	-10.9493
bo	-10.9494
tty	-10.9495
tz	-10.9547
▁ast	-10.9584
▁div	-10.9588
ax	-10.9611
98	-10.9617
mid	-10.9625
defaults	-10.964
transaction	-10.9648
dic	-10.9648
window	-10.9649
▁collect	-10.9659
▁lin	-10.9661
▁Field	-10.9663
cookie	-10.9671
▁vi	-10.9671
▁cat	-10.9683
fixed	-10.9693
▁normalize	-10.9698
light	-10.9711
Read	-10.9712
grad	-10.9714
signed	-10.9715
dhcp	-10.9724
socket	-10.9724
Queue	-10.9727
operator	-10.9727
move	-10.9728
cancel	-10.9728
Delete	-10.9729
false	-10.9729
confirm	-10.9729
glob	-10.9729
gpu	-10.973
aliases	-10.973
relative	-10.973
fmt	-10.9731
segment	-10.9732
cost	-10.9732
month	-10.9732
media	-10.9732
external	-10.9732
execution	-10.9733
angle	-10.9733
machine	-10.9733
identifier	-10.9733
prob	-10.9733
Open	-10.9734
listener	-10.9734
click	-10.9734
subject	-10.9734
▁once	-10.9735
layout	-10.9735
same	-10.9736
assert	-10.9736
protocol	-10.9737
fix	-10.9737
export	-10.9738
np	-10.9744
ready	-10.9747
failed	-10.9752
choices	-10.9755
sorted	-10.9757
▁connections	-10.9759
skip	-10.9766
qu	-10.9776
▁factori	-10.9787
▁updates	-10.9788
▁14	-10.9795
▁dd	-10.9797
metrics	-10.9806
review	-10.9812
pb	-10.9813
terms	-10.9824
versions	-10.9828
perm	-10.9844
etc	-10.9849
ould	-10.9855
micro	-10.9862
▁sources	-10.9864
Edit	-10.9868
▁override	-10.9869
▁specific	-10.9871
java	-10.9872
Extension	-10.9872
WORK	-10.9872
completion	-10.9872
Attr	-10.9872
DOWN	-10.9872
Deprecation	-10.9872
Property	-10.9872
Sample	-10.9872
availability	-10.9872
fingerprint	-10.9872
paginator	-10.9872
▁Interval	-10.9872
CONTENT	-10.9872
Tuple	-10.9872
ForeignKey	-10.9872
Password	-10.9872
dense	-10.9872
wsgi	-10.9873
▁coef	-10.9873
Helper	-10.9873
ANY	-10.9874
▁spam	-10.9875
Url	-10.9875
acc	-10.9876
▁another	-10.9879
▁necessary	-10.988
▁recv	-10.9881
▁IPv	-10.9881
▁deserialized	-10.9883
Max	-10.9892
▁coordinate	-10.9893
▁Person	-10.9893
▁neutron	-10.9893
▁desired	-10.9893
▁currently	-10.9893
Out	-10.9894
▁relpath	-10.9897
greater	-10.9897
▁working	-10.9899
gz	-10.9899
▁bank	-10.9907
▁deprecated	-10.9907
▁possible	-10.9907
▁about	-10.9907
eggs	-10.9912
Val	-10.9912
ctl	-10.9913
Prefix	-10.9913
▁connected	-10.9918
▁major	-10.992
▁Import	-10.992
▁backup	-10.9922
Email	-10.9929
▁SC	-10.9934
▁degree	-10.9934
▁episode	-10.9934
▁Permission	-10.9934
Timeout	-10.9935
▁since	-10.9937
▁sigma	-10.9939
▁reversed	-10.9941
▁closed	-10.9941
▁compare	-10.9942
▁dimensions	-10.9942
Diff	-10.9945
▁proj	-10.9947
Params	-10.9947
▁Range	-10.9947
▁Project	-10.9947
▁bundle	-10.9948
▁just	-10.9948
▁loaded	-10.9948
▁ndarray	-10.9949
▁video	-10.9949
▁trait	-10.9949
▁cr	-10.995
feature	-10.9952
▁cnt	-10.9953
▁timezone	-10.9954
▁dump	-10.9954
ke	-10.9955
▁draw	-10.9957
You	-10.9958
▁Python	-10.9962
tap	-10.9963
Num	-10.9964
▁failure	-10.9965
Loader	-10.9965
▁iteration	-10.9965
▁via	-10.9969
▁archive	-10.9976
▁wrap	-10.9977
▁cleanup	-10.9978
days	-10.9984
▁basic	-10.9987
▁question	-10.9989
▁keystone	-10.9989
png	-10.9991
MD	-10.9991
ml	-10.9991
▁correct	-10.9992
▁subset	-10.9994
▁define	-11.0001
ero	-11.0003
▁bottom	-11.0003
▁ensure	-11.0003
▁jobs	-11.0005
BR	-11.0006
▁ordered	-11.0015
▁gpu	-11.0017
▁icon	-11.0017
▁Option	-11.0019
▁pg	-11.002
▁aff	-11.0021
cov	-11.0022
▁condition	-11.003
▁Update	-11.0031
▁indexes	-11.0031
▁cm	-11.0032
▁docker	-11.0036
▁xp	-11.0038
▁without	-11.005
▁ST	-11.0051
▁tt	-11.0051
shot	-11.0063
ball	-11.007
UP	-11.007
▁definition	-11.0073
▁END	-11.0083
▁services	-11.0085
▁Start	-11.0086
cal	-11.0092
PRO	-11.0093
▁oauth	-11.0095
▁ha	-11.0096
Mus	-11.0097
▁acc	-11.0103
ary	-11.0103
runs	-11.0106
▁0.9	-11.0106
CON	-11.0114
▁modified	-11.0115
[1]	-11.0121
▁nova	-11.0122
ness	-11.0125
windows	-11.0126
42	-11.0134
ather	-11.0146
▁being	-11.0153
▁You	-11.0157
▁products	-11.0171
90	-11.0175
▁checks	-11.0185
linear	-11.0185
urlencode	-11.0188
▁respond	-11.0195
vt	-11.0212
65	-11.0231
mb	-11.0232
inc	-11.0236
▁filepath	-11.0248
cd	-11.0249
▁instances	-11.0251
Ref	-11.0257
▁namespaces	-11.0263
tl	-11.0269
quote	-11.0271
limits	-11.0277
▁vals	-11.0286
▁rate	-11.0307
▁ar	-11.0341
ish	-11.0341
ant	-11.0362
/<	-11.0364
lab	-11.0373
{0}'	-11.0411
▁asset	-11.0428
▁volumes	-11.0437
▁frames	-11.0464
▁go	-11.0475
mit	-11.0525
raise	-11.0538
})	-11.054
pri	-11.0541
▁am	-11.0541
▁500	-11.0549
sq	-11.0552
eval	-11.0571
Im	-11.0579
▁estimate	-11.0583
04	-11.0593
ION	-11.0593
rl	-11.0603
Me	-11.0618
coord	-11.0629
component	-11.0643
▁handlers	-11.0647
yp	-11.0656
94	-11.0662
▁We	-11.0668
Call	-11.0671
▁fi	-11.0677
inner	-11.0686
byte	-11.0689
1-	-11.069
\',	-11.0708
TestCase	-11.0724
contact	-11.0726
Configuration	-11.0726
margin	-11.0727
specs	-11.0728
Source	-11.0728
New	-11.0728
basic	-11.073
bottom	-11.073
ensure	-11.073
follow	-11.073
console	-11.073
Document	-11.0731
family	-11.0731
vote	-11.0731
boolean	-11.0731
sequence	-11.0732
team	-11.0732
Integer	-11.0732
period	-11.0732
begin	-11.0732
Bad	-11.0733
dispatch	-11.0733
duration	-11.0733
control	-11.0733
push	-11.0733
jar	-11.0733
kernel	-11.0733
%%	-11.0733
transport	-11.0734
reverse	-11.0735
normal	-11.0736
▁13	-11.0737
enable	-11.0739
Can	-11.0741
ptr	-11.0748
img	-11.0751
completed	-11.0756
art	-11.0757
7'	-11.0764
▁contain	-11.0767
extend	-11.0773
Send	-11.0782
dest	-11.079
My	-11.0798
ual	-11.0799
▁hi	-11.0815
tokens	-11.0823
▁Type	-11.0824
retcode	-11.0829
methods	-11.083
loader	-11.0836
Names	-11.0842
▁emit	-11.0849
AP	-11.0852
void	-11.0858
serv	-11.0872
Install	-11.0872
Panel	-11.0872
Reference	-11.0872
foreign	-11.0872
Begin	-11.0872
Controller	-11.0872
DELETE	-11.0872
Empty	-11.0872
Register	-11.0872
Traceback	-11.0872
Worker	-11.0872
avatar	-11.0872
currency	-11.0872
health	-11.0872
radius	-11.0872
▁UUID	-11.0872
SERVER	-11.0872
Please	-11.0872
▁anchor	-11.0872
Layer	-11.0872
▁additional	-11.0872
Scope	-11.0872
grammar	-11.0872
variant	-11.0872
guest	-11.0872
Profile	-11.0872
Export	-11.0872
Usage	-11.0872
▁lhs	-11.0873
adjust	-11.0873
▁directly	-11.0873
▁associated	-11.0874
Regexp	-11.0874
routing	-11.0874
FAC	-11.0874
▁OSError	-11.0876
membership	-11.0877
▁metavar	-11.0878
▁-----	-11.0878
bench	-11.0879
Transform	-11.088
Msg	-11.088
tract	-11.0881
Convert	-11.0882
good	-11.0882
Package	-11.0882
certificate	-11.0883
▁alice	-11.0884
46	-11.0889
globals	-11.0889
sign	-11.0891
MAP	-11.0894
▁serialized	-11.0894
▁tmpl	-11.0894
trip	-11.0895
▁green	-11.0895
▁glance	-11.0896
▁yet	-11.0901
AGE	-11.0908
▁sparse	-11.0909
▁mime	-11.091
▁mesh	-11.091
▁minor	-11.0915
▁ctypes	-11.092
▁theta	-11.0921
par	-11.0921
Builder	-11.0921
▁clip	-11.0924
▁registration	-11.0926
▁Site	-11.0926
▁creds	-11.0926
72	-11.0927
▁broker	-11.0928
ii	-11.0934
▁minutes	-11.0936
▁rendered	-11.0936
▁cont	-11.0938
▁poly	-11.094
▁received	-11.0941
▁Simple	-11.0941
▁regular	-11.0941
▁retries	-11.0942
▁translate	-11.0943
▁17	-11.0952
▁decorator	-11.0956
▁gateway	-11.0956
▁Raises	-11.0965
▁ignored	-11.0969
pp	-11.0971
▁refresh	-11.0971
▁XML	-11.0971
▁PORT	-11.0972
▁validation	-11.0975
weights	-11.0984
▁complex	-11.0987
▁addresses	-11.0988
▁viewer	-11.0988
▁short	-11.1001
▁processor	-11.1003
▁'./	-11.1005
▁follow	-11.1008
▁js	-11.1011
▁team	-11.1017
▁pm	-11.1029
▁inner	-11.1029
▁false	-11.1033
logical	-11.1034
mtime	-11.104
timer	-11.1042
▁{}	-11.1044
▁deps	-11.1045
▁br	-11.1046
▁lp	-11.105
▁IS	-11.1054
▁VM	-11.106
▁rt	-11.1068
▁Run	-11.1072
note	-11.1076
jobs	-11.1105
▁card	-11.1109
▁lat	-11.1113
std	-11.1122
▁symbols	-11.1125
▁detail	-11.1146
0.25	-11.1146
▁Is	-11.115
topics	-11.1161
ain	-11.1168
▁done	-11.1169
▁rpc	-11.117
▁One	-11.1173
▁0.01	-11.1175
▁positions	-11.1175
▁De	-11.1176
INT	-11.1178
shp	-11.1178
▁par	-11.118
seek	-11.1185
▁Widget	-11.1203
▁jid	-11.1209
unner	-11.1213
tcp	-11.1216
▁nb	-11.1223
inputs	-11.1226
apps	-11.1233
67	-11.1244
gap	-11.1256
tf	-11.1267
MI	-11.1267
eep	-11.1277
▁threads	-11.1282
77	-11.1283
▁sc	-11.1287
DS	-11.1302
▁tf	-11.1347
▁argparse	-11.1362
correct	-11.1372
▁Group	-11.1376
logs	-11.1376
qui	-11.1385
▁readline	-11.1404
lb	-11.1413
SH	-11.142
CS	-11.1428
▁si	-11.1435
rect	-11.1437
Int	-11.1472
wb	-11.1472
▁colors	-11.1478
▁View	-11.149
▁Text	-11.1504
cell	-11.1512
fb	-11.1515
))	-11.1516
▁locations	-11.154
ob	-11.1544
▁pin	-11.1547
57	-11.1563
RA	-11.1568
lm	-11.1569
▁sim	-11.1579
sec	-11.1583
rad	-11.1589
Menu	-11.1609
fill	-11.1623
▁rp	-11.1626
NT	-11.1634
▁dirs	-11.164
ization	-11.1667
delay	-11.167
▁22	-11.1678
').	-11.1682
Bar	-11.1696
cookies	-11.1701
▁</	-11.1701
▁vars	-11.1722
updates	-11.1729
safe	-11.1732
patterns	-11.174
metric	-11.1752
operation	-11.1752
migration	-11.1758
Option	-11.177
52	-11.1791
rit	-11.1796
▁vt	-11.1804
put	-11.181
Write	-11.1821
publish	-11.1827
exclude	-11.1835
blue	-11.1835
Description	-11.1835
focus	-11.1835
epoch	-11.1837
authenticate	-11.1838
Flow	-11.1838
slave	-11.1838
visible	-11.1838
allow	-11.1839
short	-11.184
slot	-11.1841
question	-11.1841
keystone	-11.1841
USER	-11.1841
deploy	-11.1841
notification	-11.1842
cwd	-11.1842
escape	-11.1842
future	-11.1842
placeholder	-11.1842
depth	-11.1843
clear	-11.1843
contains	-11.1843
fe	-11.1843
environment	-11.1844
multiple	-11.1844
generator	-11.1844
unique	-11.1844
environ	-11.1844
panel	-11.1844
reason	-11.1844
visit	-11.1844
private	-11.1845
TEST	-11.1845
partition	-11.1846
Page	-11.1846
vector	-11.1847
static	-11.1847
elem	-11.1849
replace	-11.185
lower	-11.1853
allowed	-11.1853
statement	-11.1855
▁our	-11.1855
Tab	-11.1862
runtime	-11.1864
joint	-11.1866
CODE	-11.1867
floating	-11.1868
indexes	-11.1871
variables	-11.1872
without	-11.1873
player	-11.1877
locale	-11.1877
reader	-11.1879
icon	-11.1881
than	-11.1883
▁requirement	-11.1887
MP	-11.1888
he	-11.1888
Param	-11.1895
urls	-11.1897
alg	-11.19
parsed	-11.1901
race	-11.1905
stage	-11.1909
pairs	-11.1914
selection	-11.1929
cells	-11.1939
▁'"	-11.1944
▁atom	-11.1946
▁18	-11.196
▁deserialize	-11.1972
pacing	-11.1974
units	-11.1975
▁replica	-11.1979
extensions	-11.1979
▁remain	-11.1982
▁assign	-11.1982
Types	-11.1982
▁adj	-11.1983
Monitor	-11.1983
▁Argument	-11.1983
ByteString	-11.1983
arathon	-11.1983
▁cipher	-11.1983
Feature	-11.1983
Level	-11.1983
Mixin	-11.1983
Notification	-11.1983
Padding	-11.1983
Properties	-11.1983
cassette	-11.1983
intercept	-11.1983
tangible	-11.1983
▁corresponding	-11.1983
▁critical	-11.1983
▁pieces	-11.1983
Managed	-11.1983
Native	-11.1983
matrices	-11.1983
modelXbrl	-11.1983
Row	-11.1983
DOMAIN	-11.1983
guess	-11.1983
Close	-11.1983
▁strftime	-11.1983
LIST	-11.1983
Lock	-11.1983
▁observer	-11.1983
creating	-11.1983
Download	-11.1983
secure	-11.1984
Admin	-11.1984
-0-	-11.1984
Topic	-11.1984
Upload	-11.1984
strong	-11.1984
EMAIL	-11.1984
Ext	-11.1984
▁correctly	-11.1985
Detail	-11.1985
interactive	-11.1985
probability	-11.1986
▁represent	-11.1986
ull	-11.1986
▁prog	-11.1986
alarm	-11.1986
Received	-11.1987
▁enc	-11.1987
Post	-11.1988
dt	-11.1988
▁tell	-11.199
▁produce	-11.1991
85	-11.1996
▁detect	-11.1997
▁normalized	-11.2
▁relationship	-11.2
ful	-11.2001
▁assigned	-11.2002
▁hour	-11.2007
{\	-11.2007
hdr	-11.2009
▁average	-11.2009
▁flask	-11.2009
▁throat	-11.2009
▁phase	-11.2009
▁reel	-11.2011
OUND	-11.2013
▁unittest	-11.2017
▁finish	-11.2017
▁formfield	-11.2018
strict	-11.2019
SQL	-11.202
Replay	-11.2022
▁targ	-11.2022
▁formatter	-11.2023
▁album	-11.2026
▁positive	-11.2026
▁wrapped	-11.2026
▁READ	-11.2026
▁representation	-11.2027
▁catch	-11.2027
▁doctest	-11.2033
▁``"	-11.2033
▁arch	-11.2035
NODE	-11.2039
▁inside	-11.2042
▁library	-11.2043
▁claim	-11.2043
▁clause	-11.2043
▁frequency	-11.2043
▁sibling	-11.2043
▁tweet	-11.2043
▁assignment	-11.2044
▁person	-11.2045
▁kwds	-11.2045
▁Http	-11.2045
Unit	-11.2046
▁boto	-11.2046
▁0.05	-11.2049
mouse	-11.2051
▁inp	-11.2052
▁newline	-11.2053
▁checksum	-11.2054
Apply	-11.2055
▁arglist	-11.2056
protect	-11.2056
▁cap	-11.2058
edges	-11.2061
▁deferred	-11.2062
▁bias	-11.2062
▁perform	-11.2065
▁lst	-11.2065
())	-11.2066
▁attach	-11.2068
▁disabled	-11.2069
▁'127.0.0.1	-11.2071
▁Load	-11.2071
▁how	-11.2078
▁managed	-11.2078
▁revision	-11.2078
▁photo	-11.2078
▁gradient	-11.2078
canary	-11.2081
▁predict	-11.2084
authorization	-11.2085
compressed	-11.2092
▁calc	-11.2095
▁threshold	-11.2095
▁VALUE	-11.2095
1234	-11.2096
enum	-11.2098
▁acl	-11.2098
▁wraps	-11.2099
▁Process	-11.2101
▁hosting	-11.2109
▁alg	-11.211
▁screen	-11.2112
dash	-11.2117
Attributes	-11.2123
▁slot	-11.2129
▁scan	-11.2135
▁hit	-11.2142
▁play	-11.2142
▁dns	-11.2145
▁formset	-11.2146
▁Source	-11.2147
▁New	-11.2147
▁ptr	-11.2162
▁Delete	-11.2164
▁cancel	-11.2164
▁light	-11.2166
▁cause	-11.2175
Doc	-11.2177
▁Format	-11.2177
▁fix	-11.2179
▁grad	-11.218
▁cli	-11.2183
▁outer	-11.2185
▁Function	-11.2196
▁absolute	-11.2199
▁many	-11.2204
▁chunks	-11.2208
locations	-11.2214
▁th	-11.2215
▁ERROR	-11.2216
300	-11.2217
▁bits	-11.2222
▁perms	-11.2234
▁removed	-11.2238
▁dx	-11.2242
▁dy	-11.2251
▁Foo	-11.2256
001	-11.2265
▁signals	-11.2279
Enum	-11.2281
BY	-11.2282
impl	-11.2283
▁Server	-11.2286
▁boot	-11.2288
Results	-11.2289
▁keywords	-11.229
▁Optional	-11.2291
tbl	-11.2294
targets	-11.2296
▁renderer	-11.2299
`:	-11.2307
▁To	-11.2311
▁pc	-11.2322
comments	-11.2326
bb	-11.2335
▁subs	-11.2353
PA	-11.2354
locals	-11.2355
fd	-11.2356
▁mat	-11.2364
▁clients	-11.237
69	-11.239
ever	-11.2393
▁Action	-11.2423
restart	-11.2429
▁changed	-11.2446
ook	-11.2455
codec	-11.2465
lex	-11.2469
DIS	-11.2473
codes	-11.2477
▁State	-11.2488
▁factor	-11.2489
sources	-11.2492
▁tables	-11.2501
401	-11.2501
▁routes	-11.2508
\'``	-11.2514
ical	-11.2519
403	-11.2533
modules	-11.2541
▁tr	-11.2557
callbacks	-11.2558
▁joint	-11.2568
px	-11.2572
▁expla	-11.2578
▁requested	-11.2578
rest	-11.2595
Popen	-11.2595
dog	-11.2596
td	-11.2605
▁bases	-11.2621
▁TYPE	-11.2644
▁nd	-11.2674
ped	-11.2676
clock	-11.2681
▁cases	-11.2685
▁quota	-11.269
▁assertNot	-11.2693
ran	-11.2693
▁31	-11.2695
compar	-11.2731
▁responses	-11.2746
most	-11.2751
getitem	-11.2755
real	-11.2788
fp	-11.2819
▁pro	-11.2841
arp	-11.2849
actor	-11.2849
aw	-11.2853
Is	-11.2866
RS	-11.2884
chars	-11.2897
▁numbers	-11.2909
53	-11.291
▁geo	-11.2911
PE	-11.2945
hop	-11.2951
▁lo	-11.2952
▁fo	-11.2957
cl	-11.2963
STR	-11.2968
tol	-11.2969
▁candidate	-11.2972
▁0.7	-11.2977
AB	-11.3001
▁comm	-11.3006
parameter	-11.3007
topic	-11.3014
▁functions	-11.302
zones	-11.3021
mount	-11.3026
},	-11.3026
OC	-11.3032
gram	-11.3033
ois	-11.3037
wo	-11.3047
▁SE	-11.3055
direct	-11.3074
Use	-11.3079
structure	-11.3082
Operation	-11.3083
Parse	-11.3083
Remote	-11.3084
tri	-11.3084
▁23	-11.3085
STATUS	-11.3085
exact	-11.3086
unknown	-11.3088
bridge	-11.3088
descriptor	-11.3088
migrate	-11.3088
free	-11.3089
Remove	-11.3089
submit	-11.3089
screen	-11.3089
trans	-11.309
complex	-11.309
extract	-11.3091
archive	-11.3091
Find	-11.3092
4.0	-11.3092
suffix	-11.3092
nested	-11.3092
mar	-11.3093
trigger	-11.3093
stmt	-11.3093
cleanup	-11.3093
45	-11.3094
pipeline	-11.3094
entries	-11.3096
axes	-11.3096
reply	-11.3097
ified	-11.3097
existing	-11.3102
▁Call	-11.3102
▁rep	-11.3105
configure	-11.3106
power	-11.3109
Stop	-11.3109
49	-11.3116
▁implement	-11.3126
href	-11.313
)"	-11.3135
▁https	-11.3135
Sh	-11.3137
removed	-11.3141
vg	-11.3153
IE	-11.3154
identity	-11.3168
Setting	-11.317
dns	-11.3173
ane	-11.3183
round	-11.3184
▁problem	-11.3189
▁Co	-11.3215
ular	-11.3217
▁imp	-11.3219
office	-11.3223
Missing	-11.3224
Match	-11.3231
▁prior	-11.3232
Failure	-11.3233
Script	-11.3233
tornado	-11.3233
Current	-11.3233
ROOT	-11.3233
Retrieve	-11.3233
Scheduler	-11.3233
mobile	-11.3233
sampling	-11.3233
sensitive	-11.3233
Definition	-11.3233
Engine	-11.3233
Height	-11.3233
LEFT	-11.3233
METHOD	-11.3233
Pattern	-11.3233
Temporary	-11.3233
closure	-11.3233
duplicate	-11.3233
swift	-11.3233
▁AssertionError	-11.3233
▁annotate	-11.3233
▁concatenate	-11.3233
▁delimiter	-11.3233
▁mixin	-11.3233
▁price	-11.3233
▁scipy	-11.3233
Generic	-11.3233
TOKEN	-11.3233
creator	-11.3233
▁AWS	-11.3233
Clear	-11.3233
ORDER	-11.3233
parallel	-11.3233
ajax	-11.3233
Edge	-11.3233
paasta	-11.3233
▁padding	-11.3233
▁declared	-11.3233
audio	-11.3233
Join	-11.3233
LIMIT	-11.3233
▁transpose	-11.3233
embed	-11.3233
▁assertRedirects	-11.3233
Poly	-11.3233
▁caption	-11.3233
▁extendedVersion	-11.3234
transfer	-11.3234
Agent	-11.3234
▁occurred	-11.3234
▁instead	-11.3234
cross	-11.3234
▁sentence	-11.3234
MAX	-11.3234
Scale	-11.3234
▁enter	-11.3234
contrib	-11.3234
combine	-11.3234
▁shard	-11.3234
Varian	-11.3235
vhd	-11.3235
Generator	-11.3235
RPC	-11.3236
plus	-11.3236
nomial	-11.3236
▁effects	-11.3237
bounds	-11.3237
tender	-11.3237
MENT	-11.3238
drag	-11.3238
When	-11.3238
MODE	-11.3238
cupy	-11.3239
RESOURCE	-11.3239
rollback	-11.3239
Rel	-11.3239
flip	-11.324
▁calculated	-11.3241
EVENT	-11.3242
▁flex	-11.3242
▁authenticated	-11.3243
Area	-11.3244
▁turn	-11.3244
Construct	-11.3246
Formatter	-11.3246
DATE	-11.3246
resize	-11.3247
bdm	-11.3247
▁mp	-11.3247
Cannot	-11.3248
mc	-11.3249
shutil	-11.325
vertex	-11.3252
RGB	-11.3252
stamp	-11.3254
▁pointer	-11.3255
Bind	-11.3257
▁nick	-11.3257
Unexpected	-11.3262
asset	-11.3262
Move	-11.3263
▁browser	-11.3263
▁pandas	-11.3263
▁aspect	-11.3263
see	-11.3264
▁persist	-11.3265
dirty	-11.3269
vl	-11.3271
LD	-11.3272
wiki	-11.3275
disc	-11.3278
curve	-11.3281
digit	-11.3282
▁combination	-11.3282
▁character	-11.3282
▁criteria	-11.3282
▁executable	-11.3282
▁todo	-11.3284
ating	-11.329
-8	-11.3292
▁today	-11.3292
bot	-11.3296
▁destroy	-11.3296
Al	-11.3299
▁inplace	-11.3301
▁finite	-11.3301
▁cycle	-11.3302
▁tokenizer	-11.3302
▁csrf	-11.3302
▁mysql	-11.3303
==	-11.3316
svn	-11.3319
▁metal	-11.332
Ok	-11.3321
▁dynamic	-11.3321
▁geometry	-11.3321
▁grant	-11.3322
▁pq	-11.3324
gettext	-11.3324
▁numeric	-11.3325
resolution	-11.3325
▁restore	-11.3327
▁problems	-11.3328
dims	-11.333
Pack	-11.3331
▁cannot	-11.3333
tracker	-11.3336
▁arrays	-11.3337
▁relationships	-11.334
▁Arguments	-11.334
Back	-11.3341
▁experiment	-11.3341
Last	-11.3345
hit	-11.3346
PyObject	-11.3346
miss	-11.3348
OF	-11.3349
▁initialize	-11.335
secs	-11.3353
netmask	-11.3353
counts	-11.3354
▁age	-11.3357
▁Application	-11.3361
▁CharField	-11.3361
▁mongo	-11.3361
▁github	-11.3361
▁subscriptions	-11.3362
▁builtin	-11.3362
▁failures	-11.3366
vdi	-11.3371
▁ipv	-11.3374
Dataset	-11.3376
▁USER	-11.3379
▁descriptor	-11.338
▁migrate	-11.338
▁free	-11.3381
▁xform	-11.3384
▁saved	-11.3385
▁subtype	-11.3385
▁weighted	-11.3387
▁Stop	-11.3389
▁dl	-11.34
▁slave	-11.34
▁visible	-11.34
TORY	-11.3408
▁margin	-11.342
▁vote	-11.342
---	-11.3421
▁Bad	-11.3423
Api	-11.3426
▁seen	-11.343
resolve	-11.3436
▁Queue	-11.344
▁operator	-11.3441
▁etc	-11.3444
ham	-11.3446
▁Send	-11.3448
▁aliases	-11.3449
connections	-11.3454
generates	-11.3458
▁Plugin	-11.346
▁dep	-11.3461
lng	-11.3462
▁vp	-11.3473
2010	-11.3476
▁URI	-11.348
▁fw	-11.3481
symmetric	-11.3495
▁direct	-11.3498
▁summary	-11.35
▁Tag	-11.35
▁meth	-11.3504
▁plain	-11.3509
▁Number	-11.352
▁filtered	-11.3525
▁design	-11.3535
▁sq	-11.3537
ach	-11.3545
candidates	-11.3547
87	-11.3551
▁ET	-11.3565
76	-11.3574
Called	-11.3579
bam	-11.358
▁Volume	-11.358
transactions	-11.3582
8.0	-11.3583
pan	-11.3592
regexp	-11.3597
▁templates	-11.3598
:`.	-11.3601
▁bb	-11.3621
PID	-11.3633
collector	-11.3645
▁etag	-11.3646
tro	-11.3652
▁terms	-11.3663
USE	-11.3674
▁OS	-11.3686
▁'%(	-11.3697
▁OR	-11.3701
/1.1	-11.3711
▁Output	-11.3722
96	-11.3736
▁bin	-11.3742
▁WHE	-11.3743
▁red	-11.3751
▁GL	-11.3759
documents	-11.3763
backward	-11.3764
▁Pa	-11.379
pay	-11.3794
live	-11.3812
▁globals	-11.3814
ret	-11.3828
NotIn	-11.3836
iven	-11.3837
psi	-11.3842
ose	-11.3845
preview	-11.3845
▁org	-11.3853
▁iso	-11.3869
▁All	-11.3871
launcher	-11.3875
bug	-11.3883
ian	-11.389
Up	-11.3909
▁comments	-11.3922
▁Content	-11.3926
▁'</	-11.3935
▁depend	-11.3938
ini	-11.3973
po	-11.3988
▁streams	-11.3994
▁21	-11.4026
devices	-11.403
outputs	-11.403
▁123	-11.4031
▁raised	-11.4037
▁sg	-11.4095
depends	-11.4095
▁clusters	-11.4118
▁native	-11.4135
templates	-11.415
▁bc	-11.4151
ndent	-11.4153
hot	-11.4158
▁substr	-11.4165
{}	-11.4168
▁activate	-11.4186
del	-11.4232
Cancel	-11.4232
▁sk	-11.4237
▁xc	-11.424
pair	-11.4241
Author	-11.4283
hdfs	-11.4286
spaces	-11.4313
▁abort	-11.432
CI	-11.4325
▁bi	-11.436
xf	-11.4373
routers	-11.4399
scan	-11.4412
override	-11.4424
exist	-11.4426
flag	-11.4433
tester	-11.4441
▁pages	-11.4443
rf	-11.4446
AUTH	-11.4466
tool	-11.4466
▁le	-11.4468
APP	-11.4474
▁docs	-11.4477
uint	-11.4481
pat	-11.4487
wid	-11.4489
break	-11.4505
PORT	-11.4506
known	-11.4511
accept	-11.4512
phone	-11.4513
align	-11.4514
warn	-11.4514
executor	-11.4515
Django	-11.4515
Access	-11.4516
Application	-11.4517
builtin	-11.4517
CharField	-11.4517
mongo	-11.4517
under	-11.4517
github	-11.4517
initialize	-11.4517
VALUE	-11.4518
threshold	-11.4518
relationship	-11.4518
refresh	-11.4519
XML	-11.4519
tail	-11.4519
Http	-11.4519
switch	-11.452
signature	-11.452
categories	-11.452
Python	-11.452
poll	-11.452
constraint	-11.452
onal	-11.4521
standard	-11.4521
issue	-11.4521
progress	-11.4521
destination	-11.4522
HTML	-11.4522
different	-11.4522
recent	-11.4522
6.0	-11.4522
font	-11.4523
Column	-11.4523
verbose	-11.4524
validation	-11.4524
reactor	-11.4524
must	-11.4526
▁views	-11.4528
-12	-11.4528
forum	-11.4528
fig	-11.4528
hour	-11.453
indent	-11.4531
lang	-11.4531
does	-11.4532
xy	-11.4533
selector	-11.4534
addresses	-11.4537
latest	-11.4538
processor	-11.4544
fault	-11.4547
prev	-11.4548
weighted	-11.4553
expires	-11.4553
force	-11.4556
queryset	-11.4556
calc	-11.4562
▁attempt	-11.4564
symbols	-11.457
▁compress	-11.4571
Callback	-11.4577
stride	-11.4584
ene	-11.4585
requires	-11.4588
AIL	-11.4593
▁cd	-11.4597
deps	-11.46
▁1024	-11.4611
qt	-11.4617
filtered	-11.462
coeff	-11.4622
cont	-11.4629
ker	-11.4641
▁counts	-11.4646
Loop	-11.4649
Change	-11.4649
Route	-11.4649
ATE	-11.465
iddleware	-11.4651
drive	-11.4651
pow	-11.4651
Cell	-11.4651
▁verbos	-11.4657
▁fact	-11.4658
Sign	-11.4659
sheet	-11.4661
▁Proto	-11.4661
umb	-11.4662
Interface	-11.4662
NORMAL	-11.4662
Sigma	-11.4662
slide	-11.4662
▁SERVICE	-11.4662
heartbeat	-11.4662
CHECK	-11.4662
Cluster	-11.4662
Exists	-11.4662
Expand	-11.4662
Iteration	-11.4662
LENGTH	-11.4662
MULTI	-11.4662
OpenSSL	-11.4662
PASSWORD	-11.4662
QUERY	-11.4662
gaussian	-11.4662
nippet	-11.4662
organisation	-11.4662
parametrize	-11.4662
quantity	-11.4662
▁JOIN	-11.4662
▁Otherwise	-11.4662
▁appropriate	-11.4662
▁confidence	-11.4662
▁copied	-11.4662
▁diverter	-11.4662
Entity	-11.4662
Payload	-11.4662
VAR	-11.4662
central	-11.4662
computation	-11.4662
corpus	-11.4662
horizontal	-11.4662
john	-11.4662
relevant	-11.4662
syntax	-11.4662
▁flatten	-11.4662
Contains	-11.4662
decision	-11.4662
thunk	-11.4662
vertices	-11.4662
▁calendar	-11.4662
Bytes	-11.4662
Environment	-11.4662
Lookup	-11.4662
Split	-11.4662
density	-11.4662
▁concept	-11.4662
▁discard	-11.4662
COMMAND	-11.4662
▁%}{	-11.4662
ACTION	-11.4662
OPTION	-11.4662
rabbit	-11.4662
Listener	-11.4662
sprite	-11.4662
HDU	-11.4662
Extract	-11.4662
▁election	-11.4662
▁endog	-11.4662
SUB	-11.4662
NUM	-11.4662
▁coroutine	-11.4662
CPU	-11.4662
correlation	-11.4662
wave	-11.4662
▁combined	-11.4662
▁symlink	-11.4662
reserve	-11.4662
dashboard	-11.4662
OUTPUT	-11.4662
META	-11.4662
addition	-11.4662
▁qua	-11.4662
Auto	-11.4662
Merge	-11.4662
PROFILE	-11.4662
enied	-11.4662
stock	-11.4662
cfml	-11.4662
▁increment	-11.4662
▁receiver	-11.4663
▁OAuth	-11.4663
▁hunt	-11.4663
▁plotting	-11.4663
▁stopped	-11.4663
quick	-11.4663
▁implementation	-11.4663
management	-11.4663
▁hide	-11.4663
contig	-11.4664
tagged	-11.4664
▁Keyword	-11.4664
formula	-11.4664
nimation	-11.4664
rotation	-11.4664
logged	-11.4664
▁prediction	-11.4664
▁specify	-11.4664
▁maybe	-11.4664
Matches	-11.4664
▁toolbar	-11.4665
learning	-11.4665
Plan	-11.4665
▁unexpected	-11.4665
▁SSH	-11.4665
▁look	-11.4666
compatible	-11.4666
DEF	-11.4666
▁strategy	-11.4667
{2}	-11.4667
black	-11.4667
Vec	-11.4667
scene	-11.4668
▁upstream	-11.4668
Provider	-11.4668
▁well	-11.4669
▁separator	-11.467
Using	-11.467
▁itself	-11.467
dropped	-11.4671
▁playlist	-11.4671
▁pdu	-11.4672
▁directed	-11.4672
AY	-11.4672
perms	-11.4673
▁redis	-11.4673
▁way	-11.4673
▁could	-11.4674
▁hostmask	-11.4674
▁'{%	-11.4674
topology	-11.4674
▁dsk	-11.4674
▁verification	-11.4675
▁remaining	-11.4675
▁'200	-11.4676
▁'{"	-11.4679
Validate	-11.4679
Vector	-11.468
subscriptions	-11.4681
urlencoded	-11.4682
▁1.1	-11.4682
Dim	-11.4683
▁union	-11.4683
monkey	-11.4683
ldap	-11.4683
Report	-11.4684
formset	-11.4685
▁backing	-11.4686
▁processes	-11.4686
▁``\'	-11.4686
▁chr	-11.4687
multipart	-11.4688
gte	-11.4688
▁realpath	-11.4688
▁coords	-11.4689
▁threading	-11.469
trim	-11.469
gle	-11.4691
Found	-11.4692
highlight	-11.4692
▁pure	-11.4692
▁writeField	-11.4692
-05	-11.4694
▁minute	-11.4694
▁DEBUG	-11.4696
▁Random	-11.4696
▁zk	-11.4696
▁cinder	-11.4696
▁artifact	-11.4697
▁dct	-11.4697
▁"{0}"	-11.4697
▁Protocol	-11.4697
FileName	-11.4698
Credentials	-11.4699
blur	-11.4699
▁sure	-11.47
▁offer	-11.4701
badge	-11.4702
▁'123	-11.4702
demo	-11.4702
></	-11.4703
▁vbox	-11.4703
"%	-11.4707
associate	-11.4709
noise	-11.4711
annotations	-11.4713
getter	-11.4714
throw	-11.4714
▁Decimal	-11.4719
▁modifier	-11.4719
▁operand	-11.4719
▁cuda	-11.4719
▁echo	-11.4719
▁eye	-11.4719
▁comparison	-11.472
▁compat	-11.472
Init	-11.472
▁overwrite	-11.4723
▁computed	-11.4724
▁small	-11.4724
Reader	-11.4728
▁origin	-11.4728
▁vif	-11.4728
▁invoke	-11.4729
SP	-11.473
▁included	-11.4732
allocation	-11.4734
▁populate	-11.4736
authority	-11.4739
FOR	-11.4741
▁Read	-11.4741
▁Case	-11.4742
▁ticket	-11.4743
▁rhs	-11.4743
▁capabilities	-11.4743
▁unpack	-11.4745
routes	-11.4746
PAR	-11.4748
▁charset	-11.4748
▁dut	-11.4755
▁Write	-11.476
▁abstract	-11.4761
\\\\	-11.4763
▁Float	-11.4765
▁HOST	-11.4765
▁Ensure	-11.4765
▁PROJECT	-11.4765
▁Series	-11.4765
▁double	-11.4766
▁pending	-11.4769
▁transition	-11.477
ansi	-11.4771
▁Cloud	-11.4772
▁kill	-11.4776
Writer	-11.4779
>/	-11.4779
▁contact	-11.4781
OU	-11.4781
▁sending	-11.4782
▁AND	-11.4787
▁firewall	-11.4787
posix	-11.4788
▁dom	-11.479
SET	-11.479
▁cy	-11.479
▁mk	-11.4793
evaluat	-11.4802
▁vol	-11.4804
▁seg	-11.4806
come	-11.4807
currence	-11.481
▁Access	-11.481
▁executor	-11.481
▁Django	-11.481
▁under	-11.4811
▁latest	-11.4812
▁ma	-11.4814
▁definitions	-11.4816
▁publish	-11.4819
▁stride	-11.482
▁recall	-11.4826
rod	-11.4827
▁matched	-11.4829
TA	-11.4831
▁decoder	-11.4832
▁Remove	-11.4834
▁unknown	-11.4835
▁submit	-11.4835
▁bridge	-11.4835
▁Find	-11.4836
styles	-11.4838
wm	-11.4844
/24	-11.4844
▁dur	-11.4844
▁constraints	-11.4846
Col	-11.4846
dont	-11.4849
={}	-11.485
keypair	-11.4852
▁coeff	-11.4854
▁201	-11.4854
ous	-11.4859
▁issues	-11.4861
▁logfile	-11.4863
Points	-11.4869
▁Not	-11.4871
▁fixtures	-11.4876
▁Configuration	-11.488
▁td	-11.4885
▁vert	-11.4888
▁expires	-11.4893
▁printed	-11.4894
▁jar	-11.4894
balls	-11.4901
0.4	-11.4904
Required	-11.491
Users	-11.4913
▁tra	-11.4922
arc	-11.4926
▁writerow	-11.4927
▁ident	-11.4935
▁pat	-11.4937
ah	-11.4943
▁overrides	-11.4944
exe	-11.4944
▁forum	-11.4947
▁hooks	-11.4949
▁Method	-11.4949
▁Module	-11.4949
▁Thread	-11.4951
▁Custom	-11.4965
pull	-11.4968
▁gene	-11.4972
There	-11.4974
▁members	-11.4981
▁cast	-11.4987
colors	-11.4988
PSI	-11.4991
▁fits	-11.5025
Web	-11.5034
*)	-11.5045
yes	-11.5051
▁book	-11.5053
▁gens	-11.5075
▁collections	-11.5086
(\'	-11.5091
▁migration	-11.5103
▁launch	-11.5108
fk	-11.5153
▁refs	-11.5155
▁...>	-11.5157
▁matcher	-11.5163
pci	-11.5173
blog	-11.5187
rand	-11.5196
PER	-11.5205
compare	-11.5213
gene	-11.5217
▁rr	-11.5219
▁ON	-11.5233
Created	-11.524
TH	-11.5254
▁argname	-11.5269
▁indexer	-11.5276
▁datasets	-11.5289
nation	-11.5303
PS	-11.5306
dataframe	-11.532
mu	-11.5324
>%	-11.533
▁backends	-11.5334
86	-11.5343
DO	-11.5367
▁Sal	-11.5378
alt	-11.5392
▁notes	-11.5404
Sum	-11.5463
PO	-11.5467
▁Book	-11.5475
PACK	-11.5478
optional	-11.5491
▁nm	-11.5505
83	-11.5519
ched	-11.5526
maker	-11.5538
inv	-11.5539
Py	-11.5574
ries	-11.5597
▁Element	-11.5628
Red	-11.563
ticks	-11.5641
geos	-11.5641
ERS	-11.5664
▁tools	-11.5667
Fi	-11.5672
HERE	-11.5673
LY	-11.5676
were	-11.5689
inf	-11.5704
▁returnValue	-11.5722
66	-11.5722
▁0.000	-11.5728
▁nu	-11.576
superuser	-11.5761
gc	-11.5766
(0,	-11.5779
coll	-11.5793
Ver	-11.5818
realm	-11.582
36	-11.5833
▁29	-11.5835
","	-11.5925
ffi	-11.5929
▁supplie	-11.5936
[0	-11.5941
pad	-11.5964
▁PO	-11.5974
▁ask	-11.5986
▁bed	-11.5994
ALL	-11.6005
exprs	-11.6011
})\	-11.603
900	-11.6056
cnt	-11.6074
theme	-11.6075
acl	-11.6082
operations	-11.6099
how	-11.61
utt	-11.6108
ctxt	-11.6109
▁expire	-11.6118
ord	-11.6121
executed	-11.6135
SR	-11.6145
▁dimension	-11.6151
Creat	-11.6153
supported	-11.6154
Connect	-11.617
migrations	-11.6171
Meta	-11.6173
attach	-11.6174
Build	-11.6176
ask	-11.6176
requirements	-11.6177
week	-11.6177
Bulk	-11.6177
CONFIG	-11.6177
Storage	-11.6177
reservation	-11.6177
bulk	-11.6177
launch	-11.6178
discover	-11.6178
decl	-11.6178
big	-11.6179
Schema	-11.618
Comment	-11.618
hidden	-11.618
scroll	-11.618
shutdown	-11.618
spawn	-11.618
wrong	-11.618
Step	-11.618
Root	-11.618
activity	-11.618
BASE	-11.618
tric	-11.6181
swap	-11.6181
firewall	-11.6182
minute	-11.6182
proj	-11.6183
experiment	-11.6183
compile	-11.6184
trait	-11.6184
Argument	-11.6185
revision	-11.6185
photo	-11.6185
pipe	-11.6185
gradient	-11.6185
just	-11.6185
ector	-11.6185
decorator	-11.6185
gateway	-11.6185
translate	-11.6185
bundle	-11.6186
Project	-11.6187
room	-11.6187
Range	-11.6187
Pa	-11.6188
ndarray	-11.6188
precision	-11.6188
prepare	-11.6188
video	-11.6188
game	-11.6188
algorithm	-11.6189
scheme	-11.6189
needs	-11.6189
validator	-11.6189
ek	-11.619
final	-11.619
credentials	-11.619
repository	-11.619
NOT	-11.619
tensor	-11.6191
flush	-11.6192
direction	-11.6192
specified	-11.6193
fast	-11.6194
retry	-11.6194
timezone	-11.6196
where	-11.6199
minion	-11.6199
customer	-11.6201
predict	-11.6202
ordered	-11.6208
Generate	-11.621
managed	-11.6214
hex	-11.6219
apply	-11.6219
fo	-11.6221
Parameter	-11.6221
aggregate	-11.6222
that	-11.6223
▁'100	-11.6233
rng	-11.6233
▁Raise	-11.6236
Arg	-11.6238
▁three	-11.6241
via	-11.6244
fun	-11.6252
using	-11.6253
Success	-11.6254
▁includ	-11.6278
▁180	-11.6278
overrides	-11.6296
care	-11.6299
▁crop	-11.6313
▁syn	-11.6316
eparator	-11.6319
Struct	-11.632
▁deep	-11.6321
FLAG	-11.6322
GROUP	-11.6322
eth	-11.6327
▁verb	-11.6328
▁appear	-11.6328
square	-11.6328
Directory	-11.6328
============	-11.6328
Some	-11.6328
WITH	-11.6328
explicit	-11.6328
frontend	-11.6328
Adapter	-11.6328
EMPTY	-11.6328
NETWORK	-11.6328
Product	-11.6328
SECRET	-11.6328
Symbol	-11.6328
pagination	-11.6328
vistrail	-11.6328
▁facet	-11.6328
▁substitute	-11.6328
▁temporary	-11.6328
Authenticat	-11.6328
CLASS	-11.6328
Component	-11.6328
Condition	-11.6328
Cookie	-11.6328
ELLI	-11.6328
Global	-11.6328
Identifier	-11.6328
Memory	-11.6328
RUNNING	-11.6328
SUCCESS	-11.6328
Security	-11.6328
Standard	-11.6328
TEMPLATE	-11.6328
THEN	-11.6328
Unique	-11.6328
activities	-11.6328
bracket	-11.6328
crawler	-11.6328
estimator	-11.6328
individual	-11.6328
libraries	-11.6328
▁Abstract	-11.6328
▁Dummy	-11.6328
▁SIG	-11.6328
▁acquire	-11.6328
▁authentication	-11.6328
▁broadcast	-11.6328
▁coordination	-11.6328
▁crypto	-11.6328
▁cutoff	-11.6328
▁orientation	-11.6328
▁specifies	-11.6328
▁truncate	-11.6328
CACHE	-11.6328
DRIVER	-11.6328
Evaluat	-11.6328
First	-11.6328
Offset	-11.6328
Scalar	-11.6328
Socket	-11.6328
Space	-11.6328
Subscription	-11.6328
abilitie	-11.6328
chassis	-11.6328
exclusive	-11.6328
medium	-11.6328
weapon	-11.6328
▁1.1.1.2	-11.6328
▁Dispatch	-11.6328
▁zmq	-11.6328
Chunk	-11.6328
Period	-11.6328
tolerance	-11.6328
▁payment	-11.6328
Consumer	-11.6328
DHCP	-11.6328
third	-11.6328
ATTR	-11.6329
Binary	-11.6329
Blob	-11.6329
lientRawResponse	-11.6329
▁LOGGER	-11.6329
▁better	-11.6329
▁jwt	-11.6329
-06	-11.6329
Parent	-11.6329
peak	-11.6329
###############	-11.6329
clothing	-11.6329
Release	-11.6329
postgres	-11.6329
▁disas	-11.6329
Docker	-11.6329
▁thumb	-11.6329
▁watcher	-11.6329
Rule	-11.6329
▁Debug	-11.6329
audit	-11.6329
declare	-11.6329
Alignment	-11.6329
properly	-11.6329
writing	-11.6329
Issue	-11.6329
ravel	-11.6329
▁Insert	-11.6329
FORMAT	-11.6329
▁picks	-11.6329
▁keepdims	-11.6329
friend	-11.6329
▁libvirt	-11.6329
alert	-11.6329
Active	-11.6329
TCP	-11.6329
oolkit	-11.6329
verified	-11.6329
ByTag	-11.6329
▁consider	-11.6329
ADDR	-11.6329
Problem	-11.6329
▁skipped	-11.6329
REVIEW	-11.6329
▁fft	-11.6329
story	-11.633
▁successfully	-11.633
prime	-11.633
treat	-11.633
coding	-11.633
conductor	-11.633
guide	-11.6331
larch	-11.6331
▁triple	-11.6331
disposition	-11.6331
Follow	-11.6331
▁Append	-11.6331
INTER	-11.6331
Json	-11.6332
Modified	-11.6332
▁overlap	-11.6332
Selection	-11.6332
Driver	-11.6333
▁bytearray	-11.6333
▁kvp	-11.6333
▁'0.0.0.0	-11.6333
▁restrict	-11.6333
▁secondary	-11.6333
▁xmlns	-11.6333
Grid	-11.6334
▁every	-11.6334
android	-11.6334
tooltip	-11.6335
Confirm	-11.6335
COUNT	-11.6335
Encode	-11.6335
▁geom	-11.6336
books	-11.6336
▁country	-11.6336
consistent	-11.6337
AND	-11.6337
▁editable	-11.6338
depNum	-11.6338
lexer	-11.6338
▁analysis	-11.6338
Member	-11.6338
▁succeeded	-11.6339
ease	-11.634
percentage	-11.6341
▁mkd	-11.6344
▁colorbar	-11.6344
Changed	-11.6344
▁invoked	-11.6344
▁association	-11.6344
Assign	-11.6346
boxes	-11.6346
horizon	-11.6347
LSE	-11.6347
▁Sparse	-11.6347
▁initialized	-11.6347
▁qos	-11.6348
coords	-11.6349
▁serve	-11.6349
▁texture	-11.6349
▁nobs	-11.6349
Hook	-11.635
aving	-11.6351
pants	-11.6352
very	-11.6354
▁Git	-11.6356
▁evaluated	-11.6356
"),	-11.6357
▁phi	-11.6359
▁tempdir	-11.6361
pause	-11.6364
TED	-11.6366
▁above	-11.637
▁classifier	-11.637
▁NULL	-11.637
▁fatal	-11.637
▁80	-11.6371
▁changelist	-11.6372
▁Creat	-11.6373
pore	-11.6374
Statement	-11.6376
gif	-11.6376
▁converted	-11.6377
infer	-11.6377
▁encoder	-11.6378
▁rsp	-11.6381
▁mimetype	-11.6381
▁optimizer	-11.6382
▁along	-11.6384
▁disable	-11.6384
▁pdf	-11.6387
▁vim	-11.639
neighbors	-11.639
▁extended	-11.6395
webob	-11.6396
▁Build	-11.6396
▁facility	-11.6397
▁Verify	-11.6397
▁expiration	-11.6397
▁gamma	-11.6397
▁organization	-11.6397
▁always	-11.6397
▁disconnect	-11.6397
▁rotate	-11.6397
▁World	-11.6397
▁denom	-11.6397
▁presence	-11.6397
▁entities	-11.6397
BIT	-11.6397
▁boundary	-11.6399
▁--------	-11.64
mult	-11.6402
▁clf	-11.6406
subtract	-11.6408
▁Th	-11.6409
▁constructor	-11.641
▁strat	-11.641
▁decorate	-11.6411
dimensional	-11.6415
▁bg	-11.6415
]*	-11.642
idth	-11.6422
▁provides	-11.6423
▁vhost	-11.6423
▁Region	-11.6424
▁Article	-11.6424
▁community	-11.6424
▁lazy	-11.6424
▁observed	-11.6424
▁creation	-11.6424
▁variance	-11.6424
▁rgb	-11.6425
▁softmax	-11.6426
▁motion	-11.6426
▁attachment	-11.6428
▁communicat	-11.6428
▁conditional	-11.6428
[2]	-11.6429
-1.	-11.6429
▁btn	-11.6431
▁Meta	-11.6433
▁agg	-11.6434
▁published	-11.6435
▁120	-11.6436
hue	-11.6436
▁decoded	-11.6437
▁rval	-11.6437
▁attached	-11.6438
▁percent	-11.6439
devel	-11.6446
IntegerField	-11.645
▁draft	-11.6452
▁prompt	-11.6452
OM	-11.6452
conan	-11.6453
▁authorize	-11.6453
conflict	-11.6457
dep	-11.6459
▁gw	-11.6459
tup	-11.6461
cmap	-11.6462
pub	-11.6462
Reading	-11.6467
equality	-11.6469
indicator	-11.6472
▁factors	-11.6472
implemented	-11.6475
lice	-11.6477
▁atoms	-11.6478
▁BASE	-11.6479
▁Schema	-11.6479
▁hidden	-11.6479
▁scroll	-11.6479
▁shutdown	-11.6479
▁wrong	-11.6479
▁Step	-11.6479
▁spawn	-11.6479
▁activity	-11.6479
▁sel	-11.6479
▁Comment	-11.6479
▁Root	-11.6479
▁avg	-11.6479
▁Generate	-11.648
▁waiting	-11.6485
▁reload	-11.6488
coin	-11.6489
95	-11.6494
345	-11.6494
Calls	-11.6498
▁100000	-11.6501
▁getElement	-11.6505
dy	-11.6505
▁6.0	-11.6507
▁known	-11.6507
▁tk	-11.6507
▁phone	-11.6509
▁0.8	-11.6511
▁iterations	-11.6513
dead	-11.6516
▁blue	-11.6517
lite	-11.6518
reraise	-11.6519
encrypted	-11.6519
SENT	-11.6523
quota	-11.6524
▁calling	-11.6525
bgp	-11.6531
Headers	-11.6532
backref	-11.6532
▁exact	-11.6534
▁STATUS	-11.6534
▁authenticate	-11.6544
▁uint	-11.6549
jid	-11.6554
:///	-11.6555
▁epoch	-11.6558
▁crs	-11.6559
▁Description	-11.6562
▁focus	-11.6562
▁Flow	-11.6565
▁Page	-11.6573
▁lon	-11.6573
lim	-11.6574
▁tracks	-11.6586
▁TestCase	-11.659
bounding	-11.6591
MQ	-11.6611
iterate	-11.6613
▁dhcp	-11.6618
gi	-11.6623
reload	-11.6624
SION	-11.6642
▁runtime	-11.6651
alive	-11.6652
mpf	-11.6656
▁slices	-11.6657
Lines	-11.6664
assigne	-11.6667
▁board	-11.6674
steps	-11.6676
later	-11.6677
▁act	-11.6679
Login	-11.6683
▁ndims	-11.6686
152	-11.6686
omb	-11.6688
PRE	-11.6689
▁means	-11.6693
▁tick	-11.6697
▁bins	-11.6697
cases	-11.6704
▁csv	-11.6705
▁coord	-11.671
▁intervals	-11.6711
gzip	-11.6713
Main	-11.6716
bob	-11.6728
wp	-11.6729
▁regions	-11.6729
gate	-11.6729
▁FILE	-11.673
12345	-11.6737
▁ram	-11.6738
▁ready	-11.6744
▁baz	-11.6758
▁Unknown	-11.6759
oup	-11.676
Str	-11.6762
▁subdir	-11.6763
ND	-11.6763
5.2	-11.6764
BU	-11.6766
▁crc	-11.6772
>\\	-11.6772
/1/	-11.6773
ql	-11.6788
fold	-11.6793
2014	-11.6802
▁reports	-11.6828
]]	-11.6834
▁UI	-11.6842
deg	-11.686
RM	-11.6887
=/	-11.6893
▁Render	-11.6919
quotas	-11.6923
RO	-11.6937
but	-11.6941
18.	-11.695
▁Status	-11.6954
405	-11.6962
checked	-11.6985
idle	-11.7019
ead	-11.7025
RATION	-11.7026
Used	-11.703
lp	-11.7037
sls	-11.7038
bus	-11.7038
MR	-11.7044
NF	-11.7046
fetchall	-11.7052
CO	-11.7092
draw	-11.7099
hashes	-11.712
ious	-11.7124
▁indicat	-11.7131
too	-11.715
ile	-11.716
▁equals	-11.7171
DC	-11.7183
sep	-11.7198
ORE	-11.7254
cea	-11.7274
east	-11.7306
rom	-11.7369
GT	-11.7373
▁lc	-11.7389
MO	-11.7414
▁resize	-11.7415
pickled	-11.7428
statistics	-11.7431
logout	-11.7458
observ	-11.7461
assi	-11.7465
Do	-11.7465
efer	-11.7478
indexer	-11.7511
BO	-11.7513
lc	-11.7517
ound	-11.7527
Multi	-11.7528
seg	-11.7548
tiles	-11.7553
▁recursive	-11.756
excluded	-11.756
olution	-11.7615
▁big	-11.7621
conv	-11.7651
▁Can	-11.769
aster	-11.7719
calculate	-11.7723
intro	-11.7742
Cloud	-11.7748
lg	-11.777
TP	-11.7777
pending	-11.7778
▁se	-11.7782
logic	-11.779
VE	-11.779
▁bf	-11.7822
▁qt	-11.7826
vol	-11.7843
▁bl	-11.7845
▁inherit	-11.7905
RP	-11.7933
xsl	-11.7934
OTE	-11.799
▁capture	-11.8006
▁white	-11.8007
400	-11.8011
655	-11.8033
emr	-11.8055
compiled	-11.8058
require	-11.8081
openType	-11.8091
▁repl	-11.8099
fore	-11.8113
▁occur	-11.8118
ually	-11.812
Len	-11.8145
mpl	-11.8157
ORI	-11.8168
encrypt	-11.8171
AST	-11.8173
soft	-11.8177
general	-11.8178
Boolean	-11.8178
dependency	-11.8178
difference	-11.8178
literal	-11.8178
large	-11.8178
recipient	-11.8178
needed	-11.8178
percent	-11.818
confirmation	-11.818
pickle	-11.818
prompt	-11.818
draft	-11.818
Raw	-11.8181
openstack	-11.8182
transition	-11.8182
Ensure	-11.8182
Float	-11.8182
PROJECT	-11.8182
Series	-11.8182
proto	-11.8182
abstract	-11.8183
finished	-11.8183
HOST	-11.8183
grant	-11.8183
dynamic	-11.8184
geometry	-11.8184
collect	-11.8184
deferred	-11.8185
keywords	-11.8185
orig	-11.8185
Simple	-11.8185
mime	-11.8186
retries	-11.8186
regular	-11.8186
Permission	-11.8186
episode	-11.8186
degree	-11.8186
numeric	-11.8187
double	-11.8187
answer	-11.8187
iterator	-11.8187
clone	-11.8187
dependencies	-11.8188
article	-11.8188
poly	-11.8188
Make	-11.8188
Compute	-11.8188
crop	-11.8188
blank	-11.8189
previous	-11.8189
world	-11.8189
deployment	-11.8189
traceback	-11.8189
Example	-11.819
initial	-11.819
JSON	-11.819
sleep	-11.819
pretty	-11.819
Optional	-11.819
distance	-11.8191
Does	-11.8191
priority	-11.8192
while	-11.8192
disabled	-11.8192
cannot	-11.8192
area	-11.8193
bias	-11.8193
stdout	-11.8194
math	-11.8196
expand	-11.8196
defined	-11.8198
subprocess	-11.8199
perform	-11.8201
upper	-11.8201
▁provide	-11.8205
iterable	-11.8207
reshape	-11.8209
decoder	-11.8209
matches	-11.8211
editor	-11.8213
irc	-11.8214
border	-11.8222
received	-11.8225
subset	-11.8229
passed	-11.8229
installed	-11.8232
/{}	-11.8235
resolver	-11.824
lineno	-11.8243
blocking	-11.8253
▁encrypt	-11.8257
egg	-11.8259
since	-11.8261
setattr	-11.8267
▁Has	-11.827
Def	-11.8277
outer	-11.8282
ight	-11.8284
▁DateTime	-11.8286
0-9	-11.8292
datastore	-11.8295
ami	-11.8296
ipv	-11.8304
writer	-11.8304
authorize	-11.8304
tube	-11.8307
Parameters	-11.8309
Temp	-11.8314
SIGN	-11.8317
kill	-11.8317
Provide	-11.8318
SOURCE	-11.8319
▁succeed	-11.8319
avg	-11.8319
▁Connect	-11.8321
▁giv	-11.8321
TAG	-11.8325
Children	-11.8326
avail	-11.8327
plug	-11.8327
-08	-11.8327
▁again	-11.8328
hich	-11.8328
ivity	-11.8328
▁middle	-11.8328
FHIR	-11.8328
▁Elastic	-11.8328
GOOG	-11.8328
sahara	-11.8328
smoothed	-11.8328
FAKE	-11.8328
FALSE	-11.8328
anonymous	-11.8328
▁GraphQL	-11.8328
TEXT	-11.8328
Watch	-11.8328
aggregation	-11.8328
milestone	-11.8328
▁opacity	-11.8328
Approval	-11.8328
AsyncHTTPClient	-11.8328
DOUBLE	-11.8328
Decorator	-11.8328
Division	-11.8328
FOO	-11.8328
Library	-11.8328
Maximum	-11.8328
OBJECT	-11.8328
Operator	-11.8328
Position	-11.8328
Progress	-11.8328
Registry	-11.8328
SPACE	-11.8328
Scene	-11.8328
Shape	-11.8328
accuracy	-11.8328
analyze	-11.8328
callLater	-11.8328
compatibility	-11.8328
decrypt	-11.8328
elevation	-11.8328
harmonic	-11.8328
improve	-11.8328
journal	-11.8328
legacy	-11.8328
likelihood	-11.8328
mechanism	-11.8328
mmediately	-11.8328
modification	-11.8328
ncreasing	-11.8328
notifier	-11.8328
optimization	-11.8328
plural	-11.8328
receipt	-11.8328
synchronized	-11.8328
▁Google	-11.8328
▁Literal	-11.8328
▁decompress	-11.8328
▁glyph	-11.8328
▁rabbitmq	-11.8328
▁scatter	-11.8328
▁skewness	-11.8328
▁sqlalchemy	-11.8328
▁tmpDeps	-11.8328
▁written	-11.8328
ADMIN	-11.8328
BUILD	-11.8328
Chart	-11.8328
MEDIA	-11.8328
Recipe	-11.8328
SCHEMA	-11.8328
Secret	-11.8328
Section	-11.8328
Sequence	-11.8328
announce	-11.8328
cascade	-11.8328
physics	-11.8328
▁SITE	-11.8328
▁Static	-11.8328
▁elapsed	-11.8328
▁monomials	-11.8328
▁slope	-11.8328
▁stuff	-11.8328
▁tgrep	-11.8328
BAR	-11.8328
FIELD	-11.8328
JPEG	-11.8328
Price	-11.8328
SETTINGS	-11.8328
TASK	-11.8328
explode	-11.8328
histogram	-11.8328
leave	-11.8328
▁frozen	-11.8328
▁inferred	-11.8328
assertLess	-11.8328
octet	-11.8328
rbitrary	-11.8328
▁enaml	-11.8328
Reason	-11.8329
brightness	-11.8329
jpg	-11.8329
xlsx	-11.8329
Limit	-11.8329
▁dedent	-11.8329
delegate	-11.8329
ironic	-11.8329
Body	-11.8329
Multiple	-11.8329
gilent	-11.8329
collision	-11.8329
deletion	-11.8329
▁NOW	-11.8329
Rank	-11.8329
compilation	-11.8329
fqdn	-11.8329
momentum	-11.8329
Fetch	-11.8329
▁sympy	-11.8329
spike	-11.8329
catalog	-11.8329
EXTEN	-11.8329
▁spider	-11.8329
delivery	-11.8329
▁sqlite	-11.8329
leading	-11.8329
ootstrap	-11.8329
special	-11.8329
transcript	-11.8329
PNM	-11.8329
fallback	-11.8329
latitude	-11.8329
Batch	-11.8329
▁npdu	-11.8329
▁squared	-11.8329
pilot	-11.8329
▁Calculate	-11.8329
▁tried	-11.8329
Logging	-11.8329
Skip	-11.8329
=====	-11.8329
Old	-11.8329
_200_	-11.8329
disassemble	-11.8329
▁assoc	-11.8329
Enter	-11.8329
elasticsearch	-11.8329
mismatch	-11.8329
▁ElementTree	-11.8329
▁psutil	-11.8329
▁svc	-11.8329
ough	-11.8329
shipping	-11.8329
6789	-11.8329
Should	-11.8329
mbda	-11.8329
SPEC	-11.8329
▁iface	-11.8329
Present	-11.8329
▁MySQL	-11.8329
▁Execute	-11.8329
▁discount	-11.8329
▁betweenness	-11.8329
Blueprint	-11.8329
▁apertures	-11.8329
8601	-11.8329
Encoding	-11.8329
▁contract	-11.8329
TIMEOUT	-11.8329
rush	-11.8329
staff	-11.8329
allocated	-11.8329
▁preprocessor	-11.8329
Pickle	-11.8329
▁permut	-11.8329
Axis	-11.8329
▁compact	-11.8329
▁httprett	-11.833
Mesh	-11.833
▁snap	-11.833
▁figure	-11.833
NotSupported	-11.833
javascript	-11.833
▁2.5	-11.833
Intent	-11.833
IMPL	-11.833
▁trade	-11.833
Retry	-11.833
surf	-11.833
EAR	-11.833
▁DOM	-11.833
Compile	-11.833
season	-11.833
infra	-11.833
▁REQ	-11.833
quiet	-11.833
▁exactly	-11.833
Irc	-11.8331
▁song	-11.8331
▁GEOS	-11.8331
▁"--	-11.8331
▁specification	-11.8331
paging	-11.8331
Weight	-11.8331
▁colour	-11.8331
Rect	-11.8331
▁throttle	-11.8332
FORM	-11.8332
passwd	-11.8332
Recu	-11.8332
Signal	-11.8332
("-	-11.8332
bert	-11.8332
road	-11.8332
trial	-11.8333
▁places	-11.8333
▁distro	-11.8333
▁writeStruct	-11.8333
▁expose	-11.8333
More	-11.8333
Categorical	-11.8333
▁persistent	-11.8334
▁surface	-11.8334
IVE	-11.8334
updating	-11.8335
▁extent	-11.8335
letter	-11.8335
▁2015	-11.8335
fee	-11.8335
Transport	-11.8335
▁documentation	-11.8336
▁lengthscale	-11.8336
preferences	-11.8336
GROUPS	-11.8337
FLAGS	-11.8337
asdf	-11.8337
▁SAS	-11.8337
heat	-11.8337
consumption	-11.8337
▁EV	-11.8338
vertical	-11.8338
Editor	-11.8338
▁anything	-11.8339
Transaction	-11.8339
▁Take	-11.8339
"``,	-11.8339
▁become	-11.834
▁2013	-11.834
▁unparse	-11.834
▁psd	-11.834
▁ptg	-11.834
elve	-11.8341
clipped	-11.8342
▁Try	-11.8342
identities	-11.8343
▁acceptor	-11.8343
TestSuite	-11.8344
▁decorated	-11.8345
Term	-11.8346
▁predicted	-11.8346
▁subparser	-11.8347
▁spacing	-11.8347
▁BigQuery	-11.8347
▁proxie	-11.8347
incoming	-11.8348
Cmd	-11.8348
smart	-11.8348
▁tpl	-11.8348
▁pkginfo	-11.8349
weekday	-11.8349
ither	-11.8351
mapped	-11.8351
Replace	-11.8351
hair	-11.8353
FER	-11.8353
agger	-11.8353
▁512	-11.8353
Shortcut	-11.8354
▁vpc	-11.8355
▁heap	-11.8356
websocket	-11.8356
▁visitor	-11.8356
▁translated	-11.8356
▁expanded	-11.8357
Pass	-11.8357
chrom	-11.8357
▁due	-11.8358
▁DX	-11.8358
hado	-11.8359
edgelist	-11.836
corr	-11.8361
Started	-11.8361
popular	-11.8361
▁'@'	-11.8363
▁prod	-11.8364
▁solve	-11.8367
▁loglevel	-11.8367
HEADER	-11.8367
ipFile	-11.8369
▁360	-11.8371
▁avoid	-11.8373
▁workspace	-11.8374
▁RT	-11.8377
▁resolved	-11.8377
unsupported	-11.8378
▁bold	-11.8378
xbrl	-11.8378
▁passes	-11.8378
PAY	-11.8379
▁1.8	-11.8379
▁distinct	-11.838
▁epsilon	-11.838
▁leader	-11.838
▁VPC	-11.838
▁flash	-11.838
▁leaf	-11.838
▁outgoing	-11.838
▁Geometry	-11.838
▁dock	-11.838
▁hardware	-11.838
▁chosen	-11.838
▁checkout	-11.838
▁cmp	-11.8382
▁recipient	-11.8383
▁stc	-11.8386
▁tan	-11.8396
Stats	-11.8404
▁provision	-11.8404
▁sourcecode	-11.8405
quality	-11.8406
Part	-11.8406
▁prec	-11.8407
▁assertStatus	-11.8409
▁Word	-11.8412
▁successful	-11.8413
▁adjacency	-11.8414
▁choose	-11.8414
▁floor	-11.8414
▁pulse	-11.8414
▁recognized	-11.8414
▁shuffle	-11.8414
▁replicator	-11.8414
▁half	-11.8414
▁icmp	-11.8414
▁WARNING	-11.8414
▁parsing	-11.8414
▁fragment	-11.8414
▁whitespace	-11.8414
▁enumerated	-11.8416
▁302	-11.8416
Successful	-11.842
Callbacks	-11.842
▁minimal	-11.8424
378	-11.8425
▁solver	-11.8425
▁recipients	-11.8427
▁listen	-11.8434
▁{2}	-11.8434
▁systemd	-11.8437
496	-11.8438
requested	-11.8439
▁10.0	-11.8439
OTH	-11.8442
▁upd	-11.8442
▁alternative	-11.8448
▁ancestor	-11.8448
▁banner	-11.8448
▁silent	-11.8448
▁Variable	-11.8448
▁WRITE	-11.8448
illing	-11.8453
Resolve	-11.8453
▁middleware	-11.8456
That	-11.8466
▁extractor	-11.8466
▁contacts	-11.847
▁calculate	-11.8472
ship	-11.8479
▁soft	-11.848
▁accepted	-11.848
▁Boolean	-11.8482
▁dependency	-11.8482
▁difference	-11.8482
▁literal	-11.8482
▁Raw	-11.8483
\\{	-11.8483
▁general	-11.8484
Pick	-11.8484
▁confirmation	-11.8484
▁large	-11.8488
▁Make	-11.8493
▁openstack	-11.8493
▁week	-11.8496
▁authz	-11.8496
▁finished	-11.85
()``	-11.8506
Qname	-11.8506
▁discover	-11.8511
▁needed	-11.8515
▁CONFIG	-11.8516
▁reservation	-11.8516
▁Storage	-11.8516
▁Bulk	-11.8516
▁bulk	-11.8516
▁attempts	-11.8523
GA	-11.8525
▁Operation	-11.8535
mlp	-11.854
▁border	-11.854
Day	-11.8543
DAP	-11.8546
▁hist	-11.855
]*\	-11.8551
▁minion	-11.8555
share	-11.8558
TION	-11.8565
REM	-11.8571
▁blocking	-11.8571
73	-11.8571
expired	-11.8572
revert	-11.8573
▁swap	-11.8575
▁kv	-11.8579
▁Remote	-11.8582
Draw	-11.8601
▁patched	-11.8619
seeds	-11.8632
past	-11.8644
jut	-11.8672
24.0	-11.8683
[1,	-11.8684
▁nrow	-11.8695
▁keyspace	-11.8705
▁requirements	-11.8706
tile	-11.8709
west	-11.8722
fasta	-11.875
inherited	-11.876
imilarity	-11.8765
hub	-11.8774
ENA	-11.8781
structured	-11.8789
ise	-11.8796
unix	-11.8799
tgt	-11.883
vil	-11.885
modal	-11.8858
lmost	-11.8861
wards	-11.8861
efine	-11.8862
17,	-11.8869
pkl	-11.8892
MB	-11.8892
▁classpath	-11.8904
hdf	-11.8914
cap	-11.8924
▁'1.0	-11.893
sound	-11.8951
0.001	-11.8957
expir	-11.899
ella	-11.9005
tab	-11.9012
aligned	-11.9019
2012	-11.9023
FS	-11.9059
aml	-11.906
prof	-11.9144
WA	-11.9164
reviewer	-11.9191
chk	-11.9214
RED	-11.9218
435	-11.9225
GB	-11.9229
downloader	-11.9229
▁reindex	-11.9287
quot	-11.9362
gis	-11.9363
manual	-11.9377
500	-11.94
▁GP	-11.9407
Mo	-11.9432
cx	-11.9444
uploader	-11.9445
=4	-11.9479
▁indicate	-11.9504
GG	-11.9507
docstring	-11.9545
▁ncol	-11.9565
PTO	-11.9566
▁Ki	-11.9592
▁sink	-11.9622
)]	-11.9626
inject	-11.9649
aug	-11.9652
▁det	-11.9653
INE	-11.9755
▁du	-11.9757
▁PI	-11.9757
tip	-11.9781
agg	-11.9795
0.5	-11.981
usual	-11.9822
▁contribution	-11.9823
jj	-11.9845
1.1/	-11.9884
Top	-11.9933
eeg	-11.9945
Bound	-11.997
preset	-11.9991
202	-12.0007
resolv	-12.0072
try	-12.0119
▁26	-12.0123
▁ilo	-12.0149
elts	-12.0178
620	-12.021
httpclient	-12.0239
OD	-12.0264
▁facto	-12.0291
erman	-12.032
OA	-12.0326
▁rank	-12.0348
▁uni	-12.0353
▁Require	-12.0424
UE	-12.0431
▁detach	-12.0438
plan	-12.0441
nnotation	-12.0452
lst	-12.0452
▁pyp	-12.0467
apse	-12.0529
three	-12.0574
lte	-12.0589
symbol	-12.0594
serializer	-12.061
wise	-12.0621
unset	-12.0632
▁unregister	-12.064
ranslations	-12.0644
schedule	-12.0652
variance	-12.0674
serial	-12.0675
Variable	-12.0678
alternative	-12.0678
ancestor	-12.0678
banner	-12.0678
silent	-12.0678
WRITE	-12.0678
▁Mark	-12.068
Case	-12.068
Article	-12.068
Region	-12.068
decorate	-12.068
community	-12.0681
lazy	-12.0681
creation	-12.0681
rgb	-12.0681
motion	-12.0681
support	-12.0681
invoke	-12.0682
ticket	-12.0682
softmax	-12.0683
attachment	-12.0683
cycle	-12.0684
tokenizer	-12.0684
csrf	-12.0684
library	-12.0685
assignment	-12.0685
clause	-12.0685
frequency	-12.0685
sibling	-12.0685
tweet	-12.0685
person	-12.0685
capabilities	-12.0685
claim	-12.0686
broker	-12.0686
registration	-12.0686
Site	-12.0686
atom	-12.0687
rhs	-12.0687
canvas	-12.0687
creds	-12.0687
mysql	-12.0687
extractor	-12.0687
virtual	-12.0687
queries	-12.0687
major	-12.0688
middleware	-12.0688
conditional	-12.0688
peer	-12.0688
kwds	-12.0689
unpack	-12.0689
primary	-12.0689
btn	-12.0689
sigma	-12.069
provided	-12.0691
super	-12.0691
DEFAULT	-12.0691
backup	-12.0692
beta	-12.0693
observed	-12.0694
charset	-12.0695
attached	-12.0696
accepted	-12.0696
arch	-12.0699
ational	-12.0701
checksum	-12.0701
published	-12.0704
boto	-12.0707
Import	-12.071
authz	-12.0712
scheduler	-12.0715
clip	-12.0718
{1}	-12.0718
restore	-12.0722
revoke	-12.0723
callable	-12.0728
waiting	-12.0729
neighbor	-12.0733
▁credential	-12.0739
ignored	-12.0742
iki	-12.0747
sender	-12.0747
utc	-12.0756
generated	-12.0758
feed	-12.0767
Pos	-12.0767
QL	-12.0767
Generat	-12.0777
ince	-12.0778
▁give	-12.0786
produc	-12.0792
sert	-12.0793
grade	-12.0794
▁roll	-12.0796
finite	-12.0802
▁measure	-12.0807
Experiment	-12.0807
▁optimize	-12.081
NE	-12.0814
}/{	-12.0817
sumption	-12.0817
lush	-12.0817
nterrupt	-12.0818
trategy	-12.0819
▁sigm	-12.0819
cenario	-12.0819
Allow	-12.0819
▁overrid	-12.0821
▁Categor	-12.0822
Regex	-12.0823
eject	-12.0825
Execut	-12.0826
ARD	-12.0827
▁according	-12.0827
Blue	-12.0828
OPT	-12.0828
routine	-12.0828
================	-12.0828
▁NetworkX	-12.0828
2015-1	-12.0828
INSTANCE	-12.0828
twilio	-12.0828
advanced	-12.0828
wagtail	-12.0828
▁VALID	-12.0828
://127.0.0.1:	-12.0828
BLOCK	-12.0828
EXECUT	-12.0828
MODULE	-12.0828
Producer	-12.0828
Repository	-12.0828
inclusion	-12.0828
penalty	-12.0828
teacher	-12.0828
▁Track	-12.0828
▁trimmed	-12.0828
CONTAINER	-12.0828
Coordinate	-12.0828
DEPLOY	-12.0828
Focus	-12.0828
ModelShow	-12.0828
RIGHT	-12.0828
autoincrement	-12.0828
bounce	-12.0828
equivalent	-12.0828
ontinuous	-12.0828
quisition	-12.0828
▁NoSuch	-12.0828
▁protein	-12.0828
▁supply	-12.0828
192.168.1.	-12.0828
ACCESS	-12.0828
ATTRIBUTE	-12.0828
Bucket	-12.0828
Buffer	-12.0828
Catalog	-12.0828
Collector	-12.0828
Continue	-12.0828
DatetimeIndex	-12.0828
Fault	-12.0828
Fixture	-12.0828
Gateway	-12.0828
History	-12.0828
INVALID	-12.0828
Ignore	-12.0828
Inverse	-12.0828
MARK	-12.0828
MIDDLEWARE	-12.0828
ModelPredictions	-12.0828
Normal	-12.0828
Override	-12.0828
PATTERN	-12.0828
PLACE	-12.0828
Predicate	-12.0828
Question	-12.0828
RESULT	-12.0828
STORAGE	-12.0828
Scheme	-12.0828
Screen	-12.0828
Scroll	-12.0828
Specification	-12.0828
Syntax	-12.0828
ToolTip	-12.0828
UnicodeString	-12.0828
WHITESPACE	-12.0828
approved	-12.0828
azure	-12.0828
centroid	-12.0828
clobber	-12.0828
collaborators	-12.0828
convenience	-12.0828
coordinator	-12.0828
ensors	-12.0828
exploration	-12.0828
female	-12.0828
inclusive	-12.0828
ircuit	-12.0828
jinja	-12.0828
marshal	-12.0828
mirror	-12.0828
moderator	-12.0828
negotiate	-12.0828
orbidden	-12.0828
puppet	-12.0828
pygments	-12.0828
ralDiet	-12.0828
repositories	-12.0828
stitution	-12.0828
tunnel	-12.0828
uclidean	-12.0828
▁9161	-12.0828
▁BEFORE	-12.0828
▁Console	-12.0828
▁Invoke	-12.0828
▁LDAPSearch	-12.0828
▁Observ	-12.0828
▁SQLAlchemy	-12.0828
▁YAML	-12.0828
▁automatically	-12.0828
▁biblio	-12.0828
▁bisect	-12.0828
▁boost	-12.0828
▁bottle	-12.0828
▁fuzzy	-12.0828
▁intermediate	-12.0828
▁juttle	-12.0828
▁obtain	-12.0828
▁oprnd	-12.0828
▁ornamentation	-12.0828
▁pixels	-12.0828
▁qualified	-12.0828
▁reminder	-12.0828
▁squash	-12.0828
▁tearDown	-12.0828
▁thrift	-12.0828
▁torrent	-12.0828
▁traverse	-12.0828
▁undirected	-12.0828
▁voice	-12.0828
ARG	-12.0828
Classifier	-12.0828
Java	-12.0828
Language	-12.0828
PUBLIC	-12.0828
Trigger	-12.0828
VERIF	-12.0828
Virtual	-12.0828
analyse	-12.0828
contributor	-12.0828
criterion	-12.0828
hyperlink	-12.0828
matplotlib	-12.0828
purge	-12.0828
traffic	-12.0828
verifier	-12.0828
▁'10.0.0.	-12.0828
▁PWM	-12.0828
▁affinity	-12.0828
▁deviation	-12.0828
▁entire	-12.0828
▁freeze	-12.0828
▁generation	-12.0828
▁happen	-12.0828
▁spatial	-12.0828
SECTION	-12.0828
captcha	-12.0828
desktop	-12.0828
glue	-12.0828
inventory	-12.0828
ipConstraintNode	-12.0828
▁Indicat	-12.0828
▁canonical	-12.0828
▁conversation	-12.0828
▁corner	-12.0828
▁ephemeral	-12.0828
▁expunge	-12.0828
▁front	-12.0828
▁peek	-12.0828
envelope	-12.0828
orphan	-12.0828
▁applied	-12.0828
▁liveaction	-12.0828
addCleanup	-12.0829
affected	-12.0829
removal	-12.0829
▁explicitly	-12.0829
Dialog	-12.0829
Long	-12.0829
permanent	-12.0829
trailing	-12.0829
▁intersection	-12.0829
▁resume	-12.0829
DESCRIPTION	-12.0829
paragraph	-12.0829
whole	-12.0829
▁initiate	-12.0829
nginx	-12.0829
shoot	-12.0829
▁moving	-12.0829
▁touch	-12.0829
{0}/{1}/	-12.0829
▁debugger	-12.0829
Both	-12.0829
ENCODING	-12.0829
▁'{0:	-12.0829
▁CSV	-12.0829
OFFSET	-12.0829
eardown	-12.0829
yellow	-12.0829
▁FrameSet	-12.0829
▁OFP	-12.0829
▁dispose	-12.0829
FONT	-12.0829
writable	-12.0829
DONE	-12.0829
GRAD	-12.0829
▁Reporter	-12.0829
▁enforce	-12.0829
▁maximize	-12.0829
guard	-12.0829
rchestra	-12.0829
yclic	-12.0829
footprint	-12.0829
vocation	-12.0829
latency	-12.0829
8080	-12.0829
clique	-12.0829
▁pairwise	-12.0829
NONE	-12.0829
Center	-12.0829
impala	-12.0829
▁integrate	-12.0829
▁gtk	-12.0829
Running	-12.0829
▁reserved	-12.0829
SETUP	-12.0829
Stub	-12.0829
privileges	-12.0829
rescue	-12.0829
▁beginning	-12.0829
inverse	-12.0829
▁meter	-12.0829
promote	-12.0829
▁compound	-12.0829
WEB	-12.0829
UNIX	-12.0829
▁vuln	-12.0829
▁Counter	-12.0829
TODO	-12.0829
▁reduced	-12.0829
ROLE	-12.0829
lowmem	-12.0829
▁AccessToken	-12.0829
Media	-12.0829
raphicFrame	-12.0829
Arc	-12.0829
QUE	-12.0829
vrrp	-12.0829
Perform	-12.083
enefit	-12.083
▁clamp	-12.083
Assert	-12.083
1747	-12.083
augment	-12.083
msrest	-12.083
▁company	-12.083
▁databaseinfra	-12.083
weak	-12.083
{0}:{1}	-12.083
trust	-12.083
▁near	-12.083
MSG	-12.083
erived	-12.083
VPN	-12.083
▁however	-12.083
▁webhook	-12.083
DNS	-12.083
▁Unix	-12.083
Specify	-12.083
Disconnect	-12.083
▁accordingly	-12.083
▁letters	-12.083
eautif	-12.083
MAIN	-12.083
AutoField	-12.083
▁Power	-12.083
integration	-12.083
▁loan	-12.083
COMP	-12.0831
Font	-12.0831
DISK	-12.0831
easy	-12.0831
BOX	-12.0831
house	-12.0831
BOO	-12.0831
▁alignment	-12.0831
Backend	-12.0832
▁arrow	-12.0832
sfr	-12.0832
▁phrase	-12.0832
munk	-12.0832
▁lsb	-12.0832
▁underline	-12.0832
▁unary	-12.0832
Mask	-12.0833
▁Copy	-12.0833
▁subscriber	-12.0833
▁Show	-12.0833
stories	-12.0833
Peer	-12.0833
▁429	-12.0833
Coord	-12.0833
compose	-12.0833
Enabled	-12.0833
xceeded	-12.0833
PARAMS	-12.0833
Configur	-12.0833
OFF	-12.0834
knows	-12.0834
SHA	-12.0834
▁Cli	-12.0834
▁aux	-12.0834
▁people	-12.0834
▁physical	-12.0834
resourceGroup	-12.0834
combo	-12.0834
▁timesteps	-12.0834
▁unused	-12.0834
tiny	-12.0834
Other	-12.0834
▁vcs	-12.0835
▁discovery	-12.0835
Readable	-12.0835
▁Xml	-12.0835
▁memcache	-12.0835
covariance	-12.0835
PEM	-12.0835
hydr	-12.0835
▁nothing	-12.0835
spection	-12.0835
▁goal	-12.0835
feat	-12.0836
▁transformation	-12.0836
▁iptables	-12.0836
mnt	-12.0837
comparator	-12.0837
▁blockdevice	-12.0838
Allowed	-12.0838
▁mkdir	-12.0838
▁Decode	-12.0838
jsonrpc	-12.0839
eph	-12.0839
branches	-12.0839
trunc	-12.0839
recursi	-12.0839
],[	-12.0839
▁fetchone	-12.0839
▁interrupt	-12.0839
▁QAction	-12.0839
tute	-12.0839
LOT	-12.0839
replication	-12.084
nauthorized	-12.084
▁atts	-12.084
Attac	-12.084
▁lsq	-12.084
▁provisioning	-12.084
INDE	-12.0841
▁jvm	-12.0842
STATE	-12.0842
ipsecpolicy	-12.0843
▁ACL	-12.0843
▁----	-12.0843
KIN	-12.0843
plane	-12.0843
▁jsonify	-12.0843
▁reasonable	-12.0843
▁hard	-12.0844
▁ofproto	-12.0844
0/1	-12.0844
▁classify	-12.0845
▁odd	-12.0846
▁replacement	-12.0846
▁viewpoint	-12.0846
▁Any	-12.0847
763	-12.0848
sitemap	-12.0848
▁Go	-12.0848
/{}/	-12.0848
Reactor	-12.0849
▁positional	-12.0849
officer	-12.085
uman	-12.0851
▁cart	-12.0851
812	-12.0852
IOLoop	-12.0853
Right	-12.0853
ponent	-12.0854
HANDLER	-12.0855
whatever	-12.0855
PING	-12.0856
plate	-12.0856
▁hdu	-12.0856
normalization	-12.0856
▁childNode	-12.0856
▁dpid	-12.0856
Head	-12.0858
CUR	-12.0859
203	-12.0861
▁2011	-12.0861
▁keyring	-12.0863
▁vcf	-12.0863
modelConcept	-12.0864
crud	-12.0864
``).	-12.0865
▁rack	-12.0865
Cut	-12.0866
ObjectType	-12.0869
getVersion	-12.0869
▁compared	-12.087
▁multivar	-12.0871
▁'80	-12.0871
NumberField	-12.0872
eigh	-12.0872
▁fprop	-12.0872
▁paste	-12.0872
▁prototype	-12.0874
renderer	-12.0874
KB	-12.0875
COLO	-12.0875
▁'::'	-12.0876
basicConfig	-12.0877
Done	-12.0878
▁publisher	-12.088
▁sizeof	-12.088
▁escaped	-12.0881
temperature	-12.0882
instanceId	-12.0883
▁evt	-12.0884
▁prepared	-12.0885
▁0.08	-12.0885
upgrade	-12.0886
▁venv	-12.0887
▁training	-12.0888
0-9_]	-12.0888
minimize	-12.0889
▁merged	-12.0889
Operational	-12.0889
▁Fora	-12.0889
▁modelObject	-12.0889
Stat	-12.0891
>[	-12.0893
▁roleType	-12.0893
invoice	-12.0895
XF	-12.0896
▁topo	-12.0896
(3)	-12.0897
▁magic	-12.0898
nger	-12.0898
cms	-12.0898
▁=========	-12.09
▁hand	-12.0901
▁algo	-12.0903
▁securitygroup	-12.0906
interpreter	-12.0911
twisted	-12.0911
dom	-12.0912
▁scaled	-12.0912
▁summ	-12.0914
▁flt	-12.0917
ester	-12.0919
VOL	-12.0923
465	-12.0926
prefetch	-12.0926
geojson	-12.0929
▁vary	-12.0931
azz	-12.0932
▁equa	-12.0953
caught	-12.0956
▁pret	-12.0957
chip	-12.0958
!"	-12.0959
[[	-12.0963
0.1	-12.0965
uppercase	-12.0976
Icon	-12.0981
RIC	-12.0983
[<	-12.0985
▁3.3	-12.0985
periodic	-12.0997
▁disp	-12.0997
usr	-12.0997
eliver	-12.1005
\\[	-12.1009
InstanceId	-12.1009
SUM	-12.1026
Processor	-12.1032
reporter	-12.1036
▁240	-12.1038
Feed	-12.1047
ropping	-12.1049
msb	-12.105
Connected	-12.1063
adapter	-12.1073
{3}	-12.1075
someattr	-12.1079
hmac	-12.1093
rol	-12.1102
udic	-12.1111
annotation	-12.1123
Slice	-12.1124
primitives	-12.1152
Prop	-12.1156
pubkey	-12.1168
AUTHOR	-12.12
batches	-12.1204
popup	-12.1222
▁converter	-12.123
lla	-12.1245
▁Ro	-12.1255
456	-12.1274
ACC	-12.1313
normalizer	-12.1329
▁0.6	-12.1408
▁OpenStackCl	-12.141
eng	-12.1432
bill	-12.1437
667	-12.1444
destroy	-12.1462
aborted	-12.1492
ray	-12.1492
▁independent	-12.1515
rmc	-12.1538
below	-12.157
populate	-12.1573
}"	-12.1578
▁paint	-12.158
10.4	-12.1582
Named	-12.1589
>]	-12.159
define	-12.1591
scheduled	-12.16
party	-12.1639
ledge	-12.1641
genre	-12.1644
functional	-12.1757
rrback	-12.1764
=1)	-12.1765
php	-12.1765
activated	-12.1773
pth	-12.1797
responder	-12.1804
launched	-12.1819
fab	-12.186
▁He	-12.1896
four	-12.1901
fully	-12.192
BLE	-12.1937
cop	-12.194
harge	-12.194
729	-12.195
aliasing	-12.1989
incorrect	-12.2063
anos	-12.2101
▁statistic	-12.2111
pct	-12.2143
ower	-12.2162
lli	-12.218
zz	-12.2206
▁Play	-12.2207
sinks	-12.2213
304	-12.2237
SON	-12.2288
}]	-12.2293
CKET	-12.2324
recording	-12.2376
eous	-12.2414
bone	-12.2429
lem	-12.2593
▁bow	-12.2615
ostream	-12.2664
SHO	-12.2762
▁spin	-12.2774
emp	-12.2853
]}	-12.2908
Desc	-12.2996
0.2	-12.318
▁locat	-12.3237
689	-12.3254
ependentData	-12.3299
ABLE	-12.3361
Lore	-12.3463
▁similar	-12.3532
▁handl	-12.3593
888	-12.3597
▁invite	-12.3604
readable	-12.3715
getting	-12.3727
PY	-12.3739
breakpoint	-12.3762
convers	-12.3762
fil	-12.3767
ERO	-12.3794
solver	-12.3798
250	-12.3805
▁adapt	-12.381
▁assume	-12.3828
▁Expect	-12.3885
onflict	-12.3888
ICK	-12.389
expire	-12.3921
variable	-12.393
choice	-12.393
▁1.6	-12.3947
small	-12.397
127.0.0.1	-12.3971
DEV	-12.3981
entities	-12.3993
Raises	-12.4005
finish	-12.4009
choose	-12.4012
replicator	-12.4012
adjacency	-12.4012
fragment	-12.4012
minimal	-12.4012
provision	-12.4012
WARNING	-12.4012
pulse	-12.4012
recognized	-12.4012
shuffle	-12.4012
floor	-12.4012
half	-12.4012
parsing	-12.4012
whitespace	-12.4012
successful	-12.4013
always	-12.4014
facility	-12.4014
gamma	-12.4014
organization	-12.4014
constructor	-12.4014
World	-12.4014
presence	-12.4014
denom	-12.4014
Verify	-12.4015
hist	-12.4016
Word	-12.4016
Decimal	-12.4016
modifier	-12.4016
expiration	-12.4016
expect	-12.4016
cuda	-12.4016
rotate	-12.4017
operand	-12.4017
native	-12.4017
cause	-12.4017
character	-12.4017
criteria	-12.4017
executable	-12.4017
disconnect	-12.4018
problem	-12.4018
comparison	-12.4018
combination	-12.4018
disable	-12.4018
boundary	-12.4018
representation	-12.4019
album	-12.4019
positive	-12.4019
wrapped	-12.4019
echo	-12.402
deprecated	-12.402
possible	-12.402
decimal	-12.4021
background	-12.4021
manifest	-12.4021
READ	-12.4021
origin	-12.4021
repeat	-12.4021
design	-12.4022
retrieve	-12.4022
between	-12.4022
suite	-12.4023
high	-12.4023
program	-12.4023
bank	-12.4023
information	-12.4023
thumbnail	-12.4024
workflow	-12.4024
dictionary	-12.4024
you	-12.4024
icmp	-12.4025
inspect	-12.4026
yield	-12.4026
catch	-12.4026
overwrite	-12.4027
packet	-12.403
CONF	-12.4033
compat	-12.4033
eye	-12.4033
DataFrame	-12.4034
errno	-12.4037
about	-12.4038
more	-12.4042
else	-12.4045
tended	-12.4047
wisted	-12.4048
reater	-12.4058
Second	-12.406
▁mak	-12.4065
▁NameO	-12.4065
▁========	-12.4065
Credential	-12.4068
spars	-12.4072
mesh	-12.4084
▁separate	-12.409
▁kwarg	-12.4091
HEAD	-12.4093
▁eig	-12.4101
INSTALL	-12.4108
▁lda	-12.4108
hortcut	-12.4122
harvest	-12.4125
▁LOW	-12.4125
ology	-12.4131
Suite	-12.4133
nalysis	-12.4141
inux	-12.4141
Plot	-12.4146
▁paused	-12.4149
Receive	-12.4149
mparator	-12.4149
ntries	-12.4151
ndices	-12.4151
ideo	-12.4152
urface	-12.4152
Drive	-12.4152
Serialize	-12.4153
monom	-12.4153
.0.0.0/	-12.4153
learn	-12.4153
hysical	-12.4154
PARAM	-12.4155
IGN	-12.4155
hrottle	-12.4156
0.05	-12.4157
eople	-12.4157
conduct	-12.4158
▁built	-12.4158
inimum	-12.4158
UME	-12.4159
nterpolat	-12.4159
▁filt	-12.4159
▁Postgres	-12.4159
▁Comm	-12.416
Estimat	-12.416
RESS	-12.416
Help	-12.416
Elem	-12.416
aperture	-12.4161
Down	-12.4161
assemble	-12.4161
Choose	-12.4161
elastic	-12.4161
Func	-12.4162
Machine	-12.4162
[0][1]	-12.4162
▁artif	-12.4162
mnist	-12.4162
▁hypot	-12.4162
CloudHSM	-12.4162
SOCIA	-12.4162
▁Embedd	-12.4162
▁priv	-12.4162
▁authenticator	-12.4162
2013-12-	-12.4162
HALNavigator	-12.4162
LDAPEntry	-12.4162
SERIAL	-12.4162
Tracker	-12.4162
facebook	-12.4162
turtle	-12.4162
▁QDock	-12.4162
instrument	-12.4162
stochastic	-12.4162
▁approximat	-12.4162
Algorithm	-12.4162
Alias	-12.4162
COLUMN	-12.4162
Choice	-12.4162
DETAIL	-12.4162
DIFF	-12.4162
Lazy	-12.4162
RECORD	-12.4162
REEN	-12.4162
avigation	-12.4162
▁PciDevice	-12.4162
)[0].	-12.4162
+---+---+	-12.4162
-74.1	-12.4162
.141592653589793	-12.4162
/1999/	-12.4162
0:00:00	-12.4162
1.2.3.4	-12.4162
20090214115600	-12.4162
ACTIVE	-12.4162
Analyzer	-12.4162
Artifact	-12.4162
Association	-12.4162
Background	-12.4162
Benchmark	-12.4162
CATEGORY	-12.4162
COMPLETE	-12.4162
COMPUTE	-12.4162
CidrBlock	-12.4162
Closure	-12.4162
Constraint	-12.4162
Currency	-12.4162
DEPRECATED	-12.4162
DESCRIPTOR	-12.4162
DICT	-12.4162
DPSolveResult	-12.4162
Descriptor	-12.4162
Different	-12.4162
ELBOTerm	-12.4162
ENABLED	-12.4162
ESCAPE	-12.4162
Episode	-12.4162
Excel	-12.4162
FORWARD	-12.4162
FUNCTION	-12.4162
HOME	-12.4162
INSERT	-12.4162
INTERVAL	-12.4162
Identical	-12.4162
Instruction	-12.4162
Kernel	-12.4162
Leave	-12.4162
MESSAGE	-12.4162
Molecule	-12.4162
Mount	-12.4162
Overflow	-12.4162
Overlap	-12.4162
Owner	-12.4162
PLUGIN	-12.4162
Partition	-12.4162
Pipeline	-12.4162
Positive	-12.4162
Primary	-12.4162
Producing	-12.4162
RETURN	-12.4162
Refresh	-12.4162
Revision	-12.4162
STREAM	-12.4162
Sheet	-12.4162
Signature	-12.4162
Subject	-12.4162
TARGET	-12.4162
VARCHAR	-12.4162
Verification	-12.4162
WIDTH	-12.4162
WINDOW	-12.4162
aggregator	-12.4162
alternate	-12.4162
analytic	-12.4162
aremetal	-12.4162
atural	-12.4162
ccelerate	-12.4162
consolidate	-12.4162
cumulative	-12.4162
darwin	-12.4162
deprecation	-12.4162
descendants	-12.4162
distributed	-12.4162
dynamodb	-12.4162
frequencies	-12.4162
greeting	-12.4162
hallenge	-12.4162
handshake	-12.4162
haredIpGroup	-12.4162
initializing	-12.4162
jitter	-12.4162
pacecraft	-12.4162
principal	-12.4162
qualifier	-12.4162
regression	-12.4162
sigmoid	-12.4162
suppression	-12.4162
synonym	-12.4162
tInvocationError	-12.4162
tanza	-12.4162
terminated	-12.4162
ueeze	-12.4162
unctuation	-12.4162
vehicle	-12.4162
visualization	-12.4162
wearables	-12.4162
▁Bunch	-12.4162
▁ByteSizePartial	-12.4162
▁COOKIE	-12.4162
▁CapturingSlot	-12.4162
▁Cumulus	-12.4162
▁DiGraph	-12.4162
▁Extended	-12.4162
▁GafferDispatch	-12.4162
▁STATIC	-12.4162
▁Shared	-12.4162
▁TBinaryProtocol	-12.4162
▁XbrlConst	-12.4162
▁abbreviation	-12.4162
▁alembic	-12.4162
▁approval	-12.4162
▁deactivate	-12.4162
▁earlie	-12.4162
▁favicon	-12.4162
▁idempotent	-12.4162
▁invitation	-12.4162
▁isEnabledFor	-12.4162
▁maintainer	-12.4162
▁memoized	-12.4162
▁movie	-12.4162
▁multiprocessing	-12.4162
▁ovsdb	-12.4162
▁propagate	-12.4162
▁quaternion	-12.4162
▁scratch	-12.4162
▁skipUnless	-12.4162
▁sticky	-12.4162
▁survey	-12.4162
▁techn	-12.4162
Activity	-12.4162
CLEAN	-12.4162
Cancelled	-12.4162
Combo	-12.4162
Density	-12.4162
Expiration	-12.4162
FULL	-12.4162
Flavor	-12.4162
INTEGER	-12.4162
MONTH	-12.4162
Migrat	-12.4162
Provision	-12.4162
WSGI	-12.4162
arentheses	-12.4162
instructions	-12.4162
purchase	-12.4162
simulation	-12.4162
visibility	-12.4162
▁Also	-12.4162
▁Twitter	-12.4162
▁behave	-12.4162
▁closing	-12.4162
▁concrete	-12.4162
▁consumed	-12.4162
▁instrumentation	-12.4162
▁nbunch	-12.4162
▁pillar	-12.4162
▁qisrc	-12.4162
▁setsockopt	-12.4162
▁summarize	-12.4162
▁tmpDepNum	-12.4162
▁uncommitted	-12.4162
▁verticalLayout	-12.4162
-73.99	-12.4162
0-03	-12.4162
AMPLE	-12.4162
Attempt	-12.4162
Compatible	-12.4162
Deprecated	-12.4162
Dynamic	-12.4162
Include	-12.4162
LoopingCall	-12.4162
Manual	-12.4162
Occurs	-12.4162
Toolbox	-12.4162
[:3]	-12.4162
andatory	-12.4162
anufacturer	-12.4162
aterial	-12.4162
carbon	-12.4162
companies	-12.4162
decrease	-12.4162
exponential	-12.4162
ilometer	-12.4162
kafka	-12.4162
messaging	-12.4162
redundancy	-12.4162
speech	-12.4162
submission	-12.4162
trajectory	-12.4162
vergence	-12.4162
▁ANSIString	-12.4162
▁DataTables	-12.4162
▁IGNORE	-12.4162
▁calculation	-12.4162
▁packaging	-12.4162
▁sliver	-12.4162
Additional	-12.4162
Guest	-12.4162
PATCH	-12.4162
SMTP	-12.4162
artesian	-12.4162
▁Solr	-12.4162
▁sensor	-12.4162
▁shadow	-12.4162
▁transferred	-12.4162
▁wallet	-12.4162
3"."	-12.4162
Critical	-12.4162
OPEN	-12.4162
Sprite	-12.4162
Summary	-12.4162
Sync	-12.4162
\\)\\{	-12.4162
cknowledg	-12.4162
complaint	-12.4162
igabit	-12.4162
phinx	-12.4162
qualify	-12.4162
silence	-12.4162
▁BAD	-12.4162
▁Framework	-12.4162
▁PROTOCOL	-12.4162
▁observation	-12.4162
▁retrieving	-12.4162
▁trove	-12.4162
ARY	-12.4162
Average	-12.4162
BACKEND	-12.4162
DNN	-12.4162
Total	-12.4162
Wrapped	-12.4162
banned	-12.4162
swagger	-12.4162
▁SUCCESSFUL	-12.4162
▁scaling	-12.4162
Audit	-12.4162
ISBN	-12.4162
Tensor	-12.4162
XBRL	-12.4162
▁LANGUAGES	-12.4162
DFL	-12.4162
DISPLAY	-12.4162
Hunt	-12.4162
Neutron	-12.4162
Transfer	-12.4162
appliance	-12.4162
circle	-12.4162
directories	-12.4162
twitter	-12.4162
1"."	-12.4162
2"."	-12.4162
ALERT	-12.4162
Push	-12.4162
mgmt	-12.4162
▁'0.8	-12.4162
CANCEL	-12.4162
Clean	-12.4162
cargle	-12.4162
▁assertHas	-12.4162
Like	-12.4162
Tools	-12.4162
Visit	-12.4162
categorical	-12.4162
reventDefault	-12.4162
Delta	-12.4162
eager	-12.4162
CUST	-12.4162
Capsule	-12.4162
Information	-12.4162
dummies	-12.4162
pymux	-12.4162
▁allele	-12.4162
/{0}/	-12.4162
FITS	-12.4162
PONG	-12.4162
multiply	-12.4162
ponsor	-12.4162
▁RAM	-12.4162
rappe	-12.4162
slash	-12.4162
▁ceil	-12.4162
▁gbp	-12.4162
25266	-12.4162
ancy	-12.4162
Chain	-12.4162
skew	-12.4162
▁motor	-12.4162
unusable	-12.4162
infrastructure	-12.4162
passthrough	-12.4162
▁PROC	-12.4162
damage	-12.4162
▁staging	-12.4162
▁percentile	-12.4162
Fmt	-12.4162
▁typically	-12.4162
ransmission	-12.4162
▁adm	-12.4162
▁ibis	-12.4162
CERT	-12.4162
Save	-12.4162
death	-12.4162
unresolved	-12.4162
▁slider	-12.4162
-09	-12.4162
huge	-12.4162
erchant	-12.4162
recedence	-12.4162
OperationFailure	-12.4162
unlimited	-12.4162
REDIRECT	-12.4162
jump	-12.4162
Remind	-12.4162
03.2	-12.4162
vagrant	-12.4162
▁polynomial	-12.4162
PXE	-12.4162
apnik	-12.4162
▁alongside	-12.4162
Something	-12.4162
anitize	-12.4162
▁composer	-12.4162
inference	-12.4162
▁regularization	-12.4162
declaration	-12.4162
▁toBe	-12.4162
Sort	-12.4162
preserved	-12.4162
AVG	-12.4162
gadget	-12.4162
▁exportChildren	-12.4163
Weak	-12.4163
▁appearance	-12.4163
="1"	-12.4163
GFM	-12.4163
Pair	-12.4163
"""\	-12.4163
/6/	-12.4163
MIME	-12.4163
toggle	-12.4163
▁4096	-12.4163
mixed	-12.4163
▁wheels	-12.4163
Structure	-12.4163
Decl	-12.4163
Mail	-12.4163
EditorFactory	-12.4163
▁tier	-12.4163
icial	-12.4163
polymorphic	-12.4163
wdr	-12.4163
▁nlin	-12.4163
chef	-12.4163
MainWindow	-12.4163
EEK	-12.4163
breakdown	-12.4163
calibrat	-12.4163
Free	-12.4163
stylesheet	-12.4163
Single	-12.4163
dvr	-12.4163
BSD	-12.4163
Repr	-12.4163
▁affine	-12.4163
VERT	-12.4163
nmae	-12.4163
xfrm	-12.4164
▁elementwise	-12.4164
existent	-12.4164
3.2.	-12.4164
Smooth	-12.4164
supervis	-12.4164
nroll	-12.4164
Geo	-12.4164
▁InvalidConfig	-12.4164
RESP	-12.4164
.3.1	-12.4164
Arrow	-12.4164
▁midi	-12.4164
▁OLS	-12.4164
1466	-12.4164
▁nonlinear	-12.4164
COMM	-12.4164
▁behavior	-12.4164
MenuItem	-12.4164
FileStoreI	-12.4164
Postgresql	-12.4164
▁Provides	-12.4164
▁interpolate	-12.4164
▁gender	-12.4164
▁customized	-12.4164
ParameterValue	-12.4165
RIES	-12.4165
▁Router	-12.4165
Packet	-12.4165
▁elec	-12.4165
MetaData	-12.4165
cuff	-12.4165
herry	-12.4165
▁buildChildren	-12.4165
▁interaction	-12.4165
▁Low	-12.4165
Env	-12.4165
everity	-12.4165
▁Poke	-12.4165
▁entropy	-12.4165
▁together	-12.4165
earer	-12.4166
dedup	-12.4166
▁daemon	-12.4166
▁BuildFile	-12.4166
▁permutation	-12.4166
10.10.	-12.4166
VICE	-12.4166
ucs	-12.4166
▁REGISTR	-12.4166
rtex	-12.4166
vendor	-12.4166
▁nearby	-12.4166
oBlocks	-12.4166
Press	-12.4166
▁2.4	-12.4166
dobe	-12.4166
▁TTransport	-12.4166
▁statically	-12.4166
Deployment	-12.4167
▁atomic	-12.4167
Once	-12.4167
▁campaign	-12.4167
wire	-12.4167
Subtree	-12.4167
▁1.7	-12.4167
ubbed	-12.4167
PYTHONPATH	-12.4167
BUF	-12.4167
capability	-12.4167
▁Subnet	-12.4167
▁operat	-12.4168
ExitRequest	-12.4168
GSS	-12.4168
▁stem	-12.4168
Finished	-12.4168
▁modify	-12.4168
▁solveset	-12.4168
▁Reil	-12.4169
latent	-12.4169
thernet	-12.4169
▁mess	-12.4169
ConnectionFailed	-12.4169
▁kern	-12.4169
▁depart	-12.4169
Vulnerability	-12.417
INIT	-12.417
▁psy	-12.417
▁chan	-12.417
▁blobstore	-12.417
▁NetworkXError	-12.417
-93	-12.417
vcpus	-12.417
fraction	-12.4171
mtu	-12.4171
▁markup	-12.4171
▁"'%	-12.4171
▁unavailable	-12.4171
▁FunctionName	-12.4171
figshare	-12.4171
What	-12.4172
▁Asset	-12.4172
▁worktree	-12.4172
XIS	-12.4172
▁distutils	-12.4172
2902	-12.4172
readonly	-12.4172
PAM	-12.4172
Redo	-12.4172
▁important	-12.4172
misc	-12.4173
TCG	-12.4173
742	-12.4173
explore	-12.4173
huey	-12.4173
▁publication	-12.4173
ManyToManyField	-12.4173
▁lcm	-12.4174
jack	-12.4174
▁exchange	-12.4174
509	-12.4174
perspective	-12.4174
Restore	-12.4174
▁previously	-12.4174
FORA	-12.4174
▁Vim	-12.4174
▁subplot	-12.4174
firm	-12.4175
singleton	-12.4175
abstractNum	-12.4175
▁AddNode	-12.4175
▁Review	-12.4176
ausedComputation	-12.4176
mpmath	-12.4176
svd	-12.4176
▁hope	-12.4176
crumb	-12.4176
Portal	-12.4176
ToView	-12.4177
344	-12.4177
▁Customer	-12.4177
▁metadef	-12.4177
SHAR	-12.4177
LAR	-12.4178
ically	-12.4178
▁2.2	-12.4178
▁3.8	-12.4179
humid	-12.4179
harm	-12.418
▁1200	-12.4181
Stdout	-12.4181
itions	-12.4181
mpeg	-12.4181
▁jac	-12.4181
▁1600	-12.4182
hilite	-12.4182
DataPoints	-12.4183
adaptive	-12.4184
Rate	-12.4184
clipboard	-12.4185
mbiguous	-12.4185
959	-12.4185
longitude	-12.4185
replies	-12.4186
AAM	-12.4186
386	-12.4187
icense	-12.4187
MissingValue	-12.419
▁ExperimentI	-12.4191
measurement	-12.4191
826	-12.4192
Notify	-12.4192
CacheFunctions	-12.4193
drv	-12.4194
CLIENT	-12.4194
preempt	-12.4195
▁\\*	-12.4196
harvester	-12.4199
▁really	-12.4199
---------------	-12.4203
Linux	-12.4207
pidfile	-12.4214
54.	-12.4215
REST	-12.4216
ActorRe	-12.4221
getLa	-12.4221
828	-12.4222
USERNAME	-12.4226
Demo	-12.4231
ModelWith	-12.4234
made	-12.4235
concat	-12.4238
unordered	-12.4241
9-3	-12.4242
spot	-12.4242
recover	-12.4248
▁mountpoint	-12.425
▁identifie	-12.4253
▁TOP	-12.4255
toolchain	-12.4258
▁mutable	-12.4261
▁'2000	-12.4261
SFT	-12.4268
unmount	-12.427
emitter	-12.427
6-4	-12.4272
fiducial	-12.4275
satisfied	-12.4277
Rpc	-12.4278
1))	-12.4292
subnetpool	-12.4295
thus	-12.4301
solr	-12.4309
evoked	-12.431
▁Rabbit	-12.4328
flatpage	-12.4335
046	-12.4339
MAIL	-12.4341
endian	-12.4345
stddev	-12.4347
ClientConnection	-12.4348
5.6	-12.435
Kill	-12.4353
econdary	-12.4354
Marker	-12.4372
Depend	-12.4385
100%	-12.4387
destruct	-12.4394
Sym	-12.4401
prst	-12.4407
xyz	-12.4426
inputLines	-12.4437
LICK	-12.4448
{1:	-12.4453
Train	-12.4455
lemwise	-12.4459
▁simplif	-12.4463
ticker	-12.4475
Repo	-12.449
LOGIN	-12.451
assumed	-12.4511
DOC	-12.4521
nstantiation	-12.4567
ASTER	-12.462
Ray	-12.4625
ebs	-12.466
1.9	-12.4661
pypi	-12.4661
hull	-12.4663
ytick	-12.4679
winner	-12.4683
GetString	-12.4693
Avg	-12.4712
subsystem	-12.4726
hreepid	-12.4728
captured	-12.4764
ersistent	-12.4778
ollapse	-12.4786
Regress	-12.4787
award	-12.481
reconnect	-12.4822
sgr	-12.4834
whitelist	-12.4859
ranking	-12.4872
▁Deserializ	-12.4874
uthorization	-12.4889
quad	-12.4979
emu	-12.5014
cro	-12.5015
autoload	-12.5015
calculat	-12.5035
etry	-12.5109
▁ufo	-12.5222
ccumulator	-12.5226
mily	-12.5237
volution	-12.5267
estimated	-12.5327
777	-12.5348
611	-12.5407
EEP	-12.5416
{0}<	-12.5501
126	-12.5543
ecursively	-12.5697
NCH	-12.58
atively	-12.583
ISO	-12.5905
newest	-12.5914
grr	-12.5932
▁Duplicate	-12.5946
▁prove	-12.6036
4.5	-12.6051
jection	-12.607
Uppe	-12.6529
674	-12.662
ipped	-12.664
startTime	-12.6743
Cryptograph	-12.724
▁Structured	-12.7458
Enabl	-12.7624
semi	-12.7849
▁symmetri	-12.7983
ability	-12.8037
persist	-12.8076
REDI	-12.8128
RenderMa	-12.8262
DIRECT	-12.8354
"-"	-12.8454
▁Initial	-12.8463
▁instantiat	-12.8533
SUME	-12.8739
"{0}"	-12.8755
ToolBar	-12.8803
▁JOB	-12.8868
aught	-12.8878
through	-12.8925
candidate	-12.8947
ompression	-12.8951
▁associat	-12.8955
ipole	-12.8962
solve	-12.8991
▁'127.0.0.	-12.8999
▁Trans	-12.9008
coef	-12.9009
white	-12.901
attempts	-12.9013
leader	-12.9013
Geometry	-12.9013
distinct	-12.9013
epsilon	-12.9013
hardware	-12.9013
outgoing	-12.9013
flash	-12.9013
VPC	-12.9013
leaf	-12.9013
chosen	-12.9014
NULL	-12.9016
above	-12.9016
classifier	-12.9016
optimizer	-12.9016
fatal	-12.9016
artifact	-12.9017
DEBUG	-12.9018
Protocol	-12.9018
Random	-12.9018
cinder	-12.9018
browser	-12.9019
pandas	-12.9019
average	-12.902
throat	-12.902
phase	-12.902
flask	-12.902
green	-12.902
glance	-12.9021
aspect	-12.9021
coordinate	-12.9021
desired	-12.9021
dimensions	-12.9021
Person	-12.9021
neutron	-12.9022
activation	-12.9022
uniform	-12.9022
dialog	-12.9022
predicate	-12.9022
attrib	-12.9023
klass	-12.9023
interpret	-12.9034
0.9	-12.9036
ython	-12.9039
Align	-12.9047
pPr	-12.9069
tecture	-12.9079
collaps	-12.9081
"{1}"	-12.9083
located	-12.9096
▁horiz	-12.9097
HANDLE	-12.9102
▁interprete	-12.9105
cessor	-12.9114
ember	-12.912
dependent	-12.9125
hStd	-12.9131
▁consist	-12.9131
Trove	-12.9134
▁START	-12.9136
High	-12.9137
Computation	-12.9139
spective	-12.9142
ouble	-12.9143
nything	-12.9144
▁enumerat	-12.9147
▁broke	-12.9147
apabilities	-12.9148
Modifie	-12.9149
riority	-12.915
ridge	-12.915
Finish	-12.9152
nherit	-12.9152
Polygon	-12.9152
ucceeded	-12.9153
▁PYTHON	-12.9153
ampaign	-12.9154
atchmo	-12.9154
hrase	-12.9154
▁slic	-12.9154
ublime	-12.9154
Remov	-12.9155
▁GEO	-12.9155
aemon	-12.9156
tween	-12.9156
ogether	-12.9156
categor	-12.9157
avi	-12.9157
▁primar	-12.9158
▁dictionar	-12.9158
Supported	-12.9158
animat	-12.9158
VIEW	-12.9158
▁Prob	-12.9159
ubscriber	-12.9159
owever	-12.9159
RATIO	-12.916
Determin	-12.916
affer	-12.916
Ratio	-12.916
ntropy	-12.9161
Foreign	-12.9161
goog	-12.9161
Calculat	-12.9161
titude	-12.9161
▁frag	-12.9161
▁WARN	-12.9161
Suppl	-12.9161
:2.16.	-12.9162
nction	-12.9162
Vertex	-12.9162
[0][0]	-12.9162
Short	-12.9162
Divi	-12.9162
SOCK	-12.9162
Home	-12.9162
▁'0.0.0	-12.9162
CELL	-12.9162
dSucceed	-12.9162
▁'20090214115	-12.9162
3:30:0	-12.9162
Decision	-12.9162
LANGUAGE	-12.9162
PRINT	-12.9162
capsul	-12.9162
tency	-12.9162
0,0,1,1,	-12.9162
=1.1.1.	-12.9162
BETWEEN	-12.9162
CONNECT	-12.9162
DAEMON	-12.9162
Fully	-12.9162
Launch	-12.9162
Locator	-12.9162
administration	-12.9162
aklient	-12.9162
claudiob	-12.9162
enttyp	-12.9162
loadbalancers	-12.9162
ookeeper	-12.9162
synchronous	-12.9162
tandalone	-12.9162
▁'2014-08-	-12.9162
▁Distribution	-12.9162
▁PixelFormat	-12.9162
Gadget	-12.9162
Hierarch	-12.9162
KnownHost	-12.9162
LOCAL	-12.9162
SCOPE	-12.9162
▁'10.0.1	-12.9162
▁VIR	-12.9162
▁bloom	-12.9162
'2011-01-0	-12.9162
Always	-12.9162
Dialect	-12.9162
Invitation	-12.9162
JIRA	-12.9162
MONGO	-12.9162
NEXT	-12.9162
Opaque	-12.9162
PAGINAT	-12.9162
Pixel	-12.9162
Public	-12.9162
Thumb	-12.9162
ToBe	-12.9162
UNKNOWN	-12.9162
alancing	-12.9162
characteristic	-12.9162
dedicated	-12.9162
ecognize	-12.9162
eovim	-12.9162
exclusion	-12.9162
hapeLearner	-12.9162
potential	-12.9162
pseudo	-12.9162
▁'192.168.0.	-12.9162
▁BUTT	-12.9162
▁Distutils	-12.9162
▁ENV	-12.9162
▁FixedI	-12.9162
▁TRUE	-12.9162
▁Trait	-12.9162
▁robotState	-12.9162
▁uliweb	-12.9162
Commit	-12.9162
Truncat	-12.9162
polate	-12.9162
▁0.1549	-12.9162
▁Administrati	-12.9162
▁CONNECTION	-12.9162
▁Dependency	-12.9162
▁LiveAction	-12.9162
▁OratorTest	-12.9162
▁PRIV	-12.9162
▁Quant	-12.9162
▁Tabbed	-12.9162
▁arelle	-12.9162
▁blender	-12.9162
▁concern	-12.9162
▁detrend	-12.9162
▁eligible	-12.9162
▁libusb	-12.9162
▁satisfy	-12.9162
▁scaffold	-12.9162
**3*	-12.9162
06:59:49.23	-12.9162
1234567'	-12.9162
2014-7-1	-12.9162
2337203685477580	-12.9162
ALINK	-12.9162
AVAILABLE	-12.9162
Absolute	-12.9162
Advance	-12.9162
Aggregat	-12.9162
Archive	-12.9162
BDAT	-12.9162
